{
  "version": "1.0",
  "truncation": null,
  "padding": null,
  "added_tokens": [
    {
      "id": 0,
      "content": "[PAD]",
      "single_word": false,
      "lstrip": false,
      "rstrip": false,
      "normalized": false,
      "special": true
    }
  ],
  "normalizer": null,
  "pre_tokenizer": {
    "type": "Whitespace"
  },
  "post_processor": null,
  "decoder": null,
  "model": {
    "type": "BPE",
    "dropout": null,
    "unk_token": "[UNK]",
    "continuing_subword_prefix": null,
    "end_of_word_suffix": null,
    "fuse_unk": false,
    "byte_fallback": false,
    "vocab": {
      "[PAD]": 0,
      "!": 1,
      "&": 2,
      "'": 3,
      "(": 4,
      ")": 5,
      "+": 6,
      ",": 7,
      "-": 8,
      ".": 9,
      "/": 10,
      "0": 11,
      "1": 12,
      "2": 13,
      "3": 14,
      "4": 15,
      "5": 16,
      "6": 17,
      "7": 18,
      "8": 19,
      "9": 20,
      ":": 21,
      ";": 22,
      "<": 23,
      "=": 24,
      ">": 25,
      "?": 26,
      "@": 27,
      "\\": 28,
      "^": 29,
      "a": 30,
      "b": 31,
      "c": 32,
      "d": 33,
      "e": 34,
      "f": 35,
      "g": 36,
      "h": 37,
      "i": 38,
      "j": 39,
      "k": 40,
      "l": 41,
      "m": 42,
      "n": 43,
      "o": 44,
      "p": 45,
      "q": 46,
      "r": 47,
      "s": 48,
      "t": 49,
      "u": 50,
      "v": 51,
      "w": 52,
      "x": 53,
      "y": 54,
      "z": 55,
      "|": 56,
      "~": 57,
      "in": 58,
      "ir": 59,
      "er": 60,
      "lo": 61,
      "or": 62,
      "an": 63,
      "en": 64,
      "ing": 65,
      "re": 66,
      "le": 67,
      "ar": 68,
      "sh": 69,
      "ha": 70,
      "ig": 71,
      "ou": 72,
      "sk": 73,
      "es": 74,
      "on": 75,
      "at": 76,
      "hair": 77,
      "ck": 78,
      "st": 79,
      "al": 80,
      "sc": 81,
      "bl": 82,
      "it": 83,
      "sky": 84,
      "do": 85,
      "ack": 86,
      "ro": 87,
      "il": 88,
      "ery": 89,
      "ding": 90,
      "scen": 91,
      "scenery": 92,
      "ho": 93,
      "out": 94,
      "ra": 95,
      "clo": 96,
      "igh": 97,
      "bo": 98,
      "ed": 99,
      "irt": 100,
      "ss": 101,
      "ch": 102,
      "door": 103,
      "ot": 104,
      "),": 105,
      "doors": 106,
      "et": 107,
      "um": 108,
      "co": 109,
      "blu": 110,
      "ight": 111,
      "outdoors": 112,
      "gir": 113,
      "girl": 114,
      "inal": 115,
      "ta": 116,
      "orig": 117,
      "original": 118,
      "id": 119,
      "ud": 120,
      "un": 121,
      "black": 122,
      "lon": 123,
      "ap": 124,
      "cloud": 125,
      "we": 126,
      "ite": 127,
      "so": 128,
      "wer": 129,
      "im": 130,
      "ves": 131,
      "blue": 132,
      "ti": 133,
      "ey": 134,
      "ok": 135,
      "long": 136,
      "el": 137,
      "ant": 138,
      "ay": 139,
      "am": 140,
      "hol": 141,
      "bu": 142,
      "th": 143,
      "ad": 144,
      "wh": 145,
      "1girl": 146,
      "no": 147,
      "holding": 148,
      "white": 149,
      "ri": 150,
      "flo": 151,
      "skirt": 152,
      "lee": 153,
      "slee": 154,
      "ent": 155,
      "shirt": 156,
      "eyes": 157,
      "ort": 158,
      "solo": 159,
      "ure": 160,
      "short": 161,
      "wn": 162,
      "and": 163,
      "ree": 164,
      "fo": 165,
      "tree": 166,
      "ater": 167,
      "ang": 168,
      "ide": 169,
      "light": 170,
      "sleeves": 171,
      "ple": 172,
      "se": 173,
      "ress": 174,
      "po": 175,
      "ag": 176,
      "water": 177,
      "ic": 178,
      "ll": 179,
      "red": 180,
      "ans": 181,
      "dress": 182,
      "sun": 183,
      "ct": 184,
      "bro": 185,
      "ve": 186,
      "li": 187,
      "day": 188,
      "pl": 189,
      "oun": 190,
      "oking": 191,
      "hum": 192,
      "humans": 193,
      "looking": 194,
      "od": 195,
      "flower": 196,
      "to": 197,
      "win": 198,
      "wear": 199,
      "ast": 200,
      "ry": 201,
      "ce": 202,
      "night": 203,
      "up": 204,
      "brown": 205,
      "nat": 206,
      "com": 207,
      "ur": 208,
      "ity": 209,
      "ak": 210,
      "mi": 211,
      "ary": 212,
      "buil": 213,
      "building": 214,
      "stan": 215,
      "standing": 216,
      "mu": 217,
      "for": 218,
      "ment": 219,
      "op": 220,
      "ie": 221,
      "gra": 222,
      "be": 223,
      "ff": 224,
      "nature": 225,
      "ne": 226,
      "comment": 227,
      "commentary": 228,
      "gre": 229,
      "der": 230,
      "star": 231,
      "sig": 232,
      "ape": 233,
      "he": 234,
      "bb": 235,
      "ma": 236,
      "bre": 237,
      "dow": 238,
      "arm": 239,
      "girls": 240,
      "bang": 241,
      "bangs": 242,
      "mo": 243,
      "tail": 244,
      "ines": 245,
      "tain": 246,
      "ear": 247,
      "jack": 248,
      "bow": 249,
      "ion": 250,
      "city": 251,
      "fro": 252,
      "grass": 253,
      "jacket": 254,
      "plant": 255,
      "de": 256,
      "anim": 257,
      "animal": 258,
      "hat": 259,
      "wide": 260,
      "mul": 261,
      "multi": 262,
      "foot": 263,
      "pa": 264,
      "pant": 265,
      "from": 266,
      "ut": 267,
      "glo": 268,
      "shot": 269,
      "outh": 270,
      "mouth": 271,
      "hor": 272,
      "ountain": 273,
      "one": 274,
      "su": 275,
      "back": 276,
      "boy": 277,
      "ting": 278,
      "mountain": 279,
      "ark": 280,
      "fi": 281,
      "ol": 282,
      "bag": 283,
      "med": 284,
      "ver": 285,
      "side": 286,
      "af": 287,
      "gen": 288,
      "ba": 289,
      "ill": 290,
      "eng": 291,
      "cks": 292,
      "her": 293,
      "iz": 294,
      "wing": 295,
      "ter": 296,
      "sy": 297,
      "cloudy": 298,
      "head": 299,
      "sa": 300,
      "road": 301,
      "te": 302,
      "sunlight": 303,
      "hand": 304,
      "sed": 305,
      "apon": 306,
      "open": 307,
      "multiple": 308,
      "weapon": 309,
      "air": 310,
      "of": 311,
      "arch": 312,
      "hood": 313,
      "ind": 314,
      "cti": 315,
      "ribb": 316,
      "ru": 317,
      "ribbon": 318,
      "vie": 319,
      "footwear": 320,
      "closed": 321,
      "viewer": 322,
      "gr": 323,
      "medi": 324,
      "sit": 325,
      "us": 326,
      "sitting": 327,
      "nam": 328,
      "all": 329,
      "the": 330,
      "lish": 331,
      "ird": 332,
      "hou": 333,
      "scape": 334,
      "ears": 335,
      "cloth": 336,
      "est": 337,
      "low": 338,
      "fle": 339,
      "english": 340,
      "bird": 341,
      "ound": 342,
      "ge": 343,
      "la": 344,
      "high": 345,
      "window": 346,
      "sho": 347,
      "rail": 348,
      "cture": 349,
      "gloves": 350,
      "medium": 351,
      "ine": 352,
      "clothes": 353,
      "sign": 354,
      "coll": 355,
      "itecture": 356,
      "architecture": 357,
      "me": 358,
      "mile": 359,
      "pants": 360,
      "is": 361,
      "smile": 362,
      "icle": 363,
      "hind": 364,
      "behind": 365,
      "wor": 366,
      "ground": 367,
      "form": 368,
      "fan": 369,
      "ink": 370,
      "bare": 371,
      "scho": 372,
      "uni": 373,
      "school": 374,
      "eld": 375,
      "breast": 376,
      "refle": 377,
      "reflecti": 378,
      "hicle": 379,
      "vehicle": 380,
      "leg": 381,
      "tr": 382,
      "fa": 383,
      "other": 384,
      "ly": 385,
      "way": 386,
      "breasts": 387,
      "tra": 388,
      "cat": 389,
      "grey": 390,
      "socks": 391,
      "shin": 392,
      "je": 393,
      "coat": 394,
      "fu": 395,
      "inese": 396,
      "chinese": 397,
      "fanta": 398,
      "uniform": 399,
      "green": 400,
      "art": 401,
      "ots": 402,
      "izon": 403,
      "horizon": 404,
      "shi": 405,
      "thigh": 406,
      "fantasy": 407,
      "uk": 408,
      "less": 409,
      "shorts": 410,
      "dy": 411,
      "ard": 412,
      "boots": 413,
      "br": 414,
      "om": 415,
      "neck": 416,
      "set": 417,
      "shou": 418,
      "fr": 419,
      "book": 420,
      "impa": 421,
      "1boy": 422,
      "impact": 423,
      "ble": 424,
      "ser": 425,
      "sp": 426,
      "stair": 427,
      "signature": 428,
      "amp": 429,
      "stairs": 430,
      "ca": 431,
      "highs": 432,
      "blur": 433,
      "ern": 434,
      "shoes": 435,
      "ated": 436,
      "pur": 437,
      "genshin": 438,
      "word": 439,
      "purple": 440,
      "moon": 441,
      "sword": 442,
      "forest": 443,
      "lder": 444,
      "wa": 445,
      "blurry": 446,
      "ka": 447,
      "ph": 448,
      "ous": 449,
      "collar": 450,
      "sha": 451,
      "blon": 452,
      "body": 453,
      "blonde": 454,
      "shoulder": 455,
      "land": 456,
      "lamp": 457,
      "ony": 458,
      "per": 459,
      "sunset": 460,
      "pole": 461,
      "cle": 462,
      "qu": 463,
      "cro": 464,
      "reflection": 465,
      "away": 466,
      "ornam": 467,
      "ornament": 468,
      "lor": 469,
      "wings": 470,
      "yel": 471,
      "stre": 472,
      "lant": 473,
      "lantern": 474,
      "yellow": 475,
      "as": 476,
      "full": 477,
      "ence": 478,
      "int": 479,
      "pink": 480,
      "ob": 481,
      "leaf": 482,
      "lla": 483,
      "over": 484,
      "umbre": 485,
      "umbrella": 486,
      "cape": 487,
      "very": 488,
      "fe": 489,
      "uff": 490,
      "alk": 491,
      "field": 492,
      "shadow": 493,
      "cityscape": 494,
      "cean": 495,
      "bra": 496,
      "ocean": 497,
      "post": 498,
      "lines": 499,
      "power": 500,
      "wo": 501,
      "cus": 502,
      "focus": 503,
      "walk": 504,
      "headwear": 505,
      "ian": 506,
      "railing": 507,
      "ake": 508,
      "let": 509,
      "ik": 510,
      "con": 511,
      "ating": 512,
      "starry": 513,
      "male": 514,
      "house": 515,
      "rock": 516,
      "2girls": 517,
      "fish": 518,
      "ins": 519,
      "fence": 520,
      "pony": 521,
      "twin": 522,
      "age": 523,
      "di": 524,
      "ponytail": 525,
      "thighhighs": 526,
      "indoors": 527,
      "fly": 528,
      "ach": 529,
      "shop": 530,
      "tie": 531,
      "fac": 532,
      "ath": 533,
      "ility": 534,
      "par": 535,
      "band": 536,
      "sno": 537,
      "scar": 538,
      "utility": 539,
      "ate": 540,
      "blo": 541,
      "sai": 542,
      "ono": 543,
      "eye": 544,
      "ori": 545,
      "ffic": 546,
      "pot": 547,
      "floating": 548,
      "chair": 549,
      "brid": 550,
      "ruins": 551,
      "ring": 552,
      "hose": 553,
      "panty": 554,
      "arms": 555,
      "sleeve": 556,
      "pe": 557,
      "pantyhose": 558,
      "tails": 559,
      "facing": 560,
      "ft": 561,
      "ject": 562,
      "bridge": 563,
      "yu": 564,
      "landscape": 565,
      "sailor": 566,
      "braid": 567,
      "ire": 568,
      "als": 569,
      "nights": 570,
      "kim": 571,
      "arknights": 572,
      "sleeveless": 573,
      "ven": 574,
      "tex": 575,
      "trim": 576,
      "scarf": 577,
      "pho": 578,
      "ade": 579,
      "object": 580,
      "ya": 581,
      "kne": 582,
      "ers": 583,
      "text": 584,
      "ange": 585,
      "pleated": 586,
      "dra": 587,
      "boys": 588,
      "pet": 589,
      "twintails": 590,
      "bush": 591,
      "photo": 592,
      "ko": 593,
      "horn": 594,
      "cross": 595,
      "bel": 596,
      "wind": 597,
      "floor": 598,
      "blush": 599,
      "ween": 600,
      "na": 601,
      "aster": 602,
      "tou": 603,
      "east": 604,
      "sm": 605,
      "lip": 606,
      "mountainous": 607,
      "cup": 608,
      "hi": 609,
      "gu": 610,
      "bet": 611,
      "mon": 612,
      "orange": 613,
      "jap": 614,
      "japan": 615,
      "food": 616,
      "kimono": 617,
      "between": 618,
      "car": 619,
      "snow": 620,
      "legwear": 621,
      "uku": 622,
      "mot": 623,
      "name": 624,
      "ation": 625,
      "tt": 626,
      "lamppost": 627,
      "asian": 628,
      "touhou": 629,
      "colo": 630,
      "pap": 631,
      "theme": 632,
      "line": 633,
      "table": 634,
      "wood": 635,
      "wit": 636,
      "elf": 637,
      "stone": 638,
      "bor": 639,
      "ese": 640,
      "locks": 641,
      "pack": 642,
      "horns": 643,
      "walking": 644,
      "fire": 645,
      "photoshop": 646,
      "paper": 647,
      "afuku": 648,
      "by": 649,
      "ray": 650,
      "tower": 651,
      "serafuku": 652,
      "knee": 653,
      "pi": 654,
      "ron": 655,
      "lass": 656,
      "fall": 657,
      "ane": 658,
      "backpack": 659,
      "ber": 660,
      "phone": 661,
      "japanese": 662,
      "motor": 663,
      "cra": 664,
      "hands": 665,
      "rain": 666,
      "gon": 667,
      "wel": 668,
      "wooden": 669,
      "chi": 670,
      "ia": 671,
      "glowing": 672,
      "cha": 673,
      "mark": 674,
      "sidelocks": 675,
      "craft": 676,
      "ku": 677,
      "colored": 678,
      "parti": 679,
      "kir": 680,
      "py": 681,
      "top": 682,
      "1other": 683,
      "oid": 684,
      "inst": 685,
      "ji": 686,
      "river": 687,
      "uffy": 688,
      "can": 689,
      "rip": 690,
      "suit": 691,
      "sym": 692,
      "petals": 693,
      "fur": 694,
      "ial": 695,
      "puffy": 696,
      "go": 697,
      "legs": 698,
      "dragon": 699,
      "yo": 700,
      "led": 701,
      "armor": 702,
      "flying": 703,
      "glass": 704,
      "met": 705,
      "shelf": 706,
      "under": 707,
      "min": 708,
      "shoulders": 709,
      "rum": 710,
      "ted": 711,
      "swe": 712,
      "cre": 713,
      "ki": 714,
      "bott": 715,
      "rays": 716,
      "down": 717,
      "bottle": 718,
      "hu": 719,
      "necktie": 720,
      "street": 721,
      "dark": 722,
      "multicolored": 723,
      "jewel": 724,
      "asteroid": 725,
      "jewelry": 726,
      "box": 727,
      "tori": 728,
      "shade": 729,
      "colla": 730,
      "mer": 731,
      "wil": 732,
      "ame": 733,
      "fl": 734,
      "bble": 735,
      "barefoot": 736,
      "stra": 737,
      "ume": 738,
      "vest": 739,
      "torii": 740,
      "collared": 741,
      "even": 742,
      "ench": 743,
      "ara": 744,
      "board": 745,
      "belt": 746,
      "bol": 747,
      "ies": 748,
      "xing": 749,
      "instrum": 750,
      "instrument": 751,
      "watermark": 752,
      "cast": 753,
      "pla": 754,
      "train": 755,
      "gi": 756,
      "mil": 757,
      "others": 758,
      "man": 759,
      "sing": 760,
      "dep": 761,
      "zhi": 762,
      "depth": 763,
      "ana": 764,
      "evening": 765,
      "another": 766,
      "cal": 767,
      "scra": 768,
      "reflective": 769,
      "symbol": 770,
      "ami": 771,
      "lv": 772,
      "pr": 773,
      "sum": 774,
      "az": 775,
      "ari": 776,
      "skyscra": 777,
      "skyscraper": 778,
      "wall": 779,
      "xingzhi": 780,
      "hoodie": 781,
      "gun": 782,
      "ice": 783,
      "bar": 784,
      "series": 785,
      "cher": 786,
      "traffic": 787,
      "aho": 788,
      "illed": 789,
      "chie": 790,
      "ills": 791,
      "ahoge": 792,
      "frilled": 793,
      "umn": 794,
      "user": 795,
      "ank": 796,
      "ition": 797,
      "clock": 798,
      "aqu": 799,
      "fox": 800,
      "tok": 801,
      "single": 802,
      "offic": 803,
      "mach": 804,
      "background": 805,
      "det": 806,
      "winter": 807,
      "dition": 808,
      "ni": 809,
      "ama": 810,
      "cut": 811,
      "len": 812,
      "border": 813,
      "ex": 814,
      "pro": 815,
      "sta": 816,
      "frills": 817,
      "potted": 818,
      "kirby": 819,
      "hel": 820,
      "part": 821,
      "fog": 822,
      "ached": 823,
      "detached": 824,
      "cket": 825,
      "eth": 826,
      "ust": 827,
      "bi": 828,
      "sand": 829,
      "ue": 830,
      "ather": 831,
      "orn": 832,
      "teeth": 833,
      "official": 834,
      "ched": 835,
      "bus": 836,
      "erchie": 837,
      "copy": 838,
      "watercraft": 839,
      "cherry": 840,
      "erchief": 841,
      "av": 842,
      "right": 843,
      "les": 844,
      "neckerchief": 845,
      "dr": 846,
      "vis": 847,
      "cles": 848,
      "fra": 849,
      "xi": 850,
      "aut": 851,
      "feet": 852,
      "roof": 853,
      "castle": 854,
      "print": 855,
      "ken": 856,
      "gradi": 857,
      "gradient": 858,
      "aqua": 859,
      "copyright": 860,
      "ssom": 861,
      "railroad": 862,
      "blossom": 863,
      "lake": 864,
      "face": 865,
      "stret": 866,
      "aki": 867,
      "abo": 868,
      "alter": 869,
      "rings": 870,
      "ato": 871,
      "ell": 872,
      "autumn": 873,
      "blossoms": 874,
      "cho": 875,
      "nate": 876,
      "ster": 877,
      "alternate": 878,
      "ban": 879,
      "she": 880,
      "lea": 881,
      "igu": 882,
      "stretched": 883,
      "bench": 884,
      "inter": 885,
      "outstretched": 886,
      "plaid": 887,
      "ils": 888,
      "apron": 889,
      "uki": 890,
      "parted": 891,
      "ycle": 892,
      "cost": 893,
      "vo": 894,
      "wha": 895,
      "point": 896,
      "bun": 897,
      "fing": 898,
      "anch": 899,
      "boat": 900,
      "sweater": 901,
      "whale": 902,
      "cloak": 903,
      "but": 904,
      "play": 905,
      "sou": 906,
      "blood": 907,
      "costume": 908,
      "gro": 909,
      "kan": 910,
      "lips": 911,
      "gy": 912,
      "bubble": 913,
      "gender": 914,
      "ke": 915,
      "dated": 916,
      "fla": 917,
      "miss": 918,
      "fore": 919,
      "atsu": 920,
      "amb": 921,
      "bowtie": 922,
      "branch": 923,
      "hill": 924,
      "path": 925,
      "iguous": 926,
      "ambiguous": 927,
      "da": 928,
      "jo": 929,
      "frame": 930,
      "above": 931,
      "ga": 932,
      "apple": 933,
      "waterfall": 934,
      "trans": 935,
      "ton": 936,
      "twil": 937,
      "twilight": 938,
      "terfly": 939,
      "capelet": 940,
      "kneehighs": 941,
      "particles": 942,
      "leaves": 943,
      "butterfly": 944,
      "cr": 945,
      "own": 946,
      "ved": 947,
      "desk": 948,
      "aku": 949,
      "pill": 950,
      "ual": 951,
      "chil": 952,
      "bbit": 953,
      "gend": 954,
      "overgro": 955,
      "pillar": 956,
      "overgrown": 957,
      "legend": 958,
      "ont": 959,
      "staff": 960,
      "helmet": 961,
      "live": 962,
      "summer": 963,
      "hairband": 964,
      "rabbit": 965,
      "front": 966,
      "aru": 967,
      "room": 968,
      "vision": 969,
      "uber": 970,
      "remo": 971,
      "removed": 972,
      "ld": 973,
      "loid": 974,
      "hak": 975,
      "ship": 976,
      "caloid": 977,
      "feather": 978,
      "vocaloid": 979,
      "lar": 980,
      "lights": 981,
      "stat": 982,
      "child": 983,
      "trimmed": 984,
      "machine": 985,
      "cur": 986,
      "final": 987,
      "earrings": 988,
      "lens": 989,
      "mission": 990,
      "get": 991,
      "angle": 992,
      "strip": 993,
      "riding": 994,
      "flare": 995,
      "bal": 996,
      "shu": 997,
      "holo": 998,
      "nt": 999,
      "sket": 1000,
      "rist": 1001,
      "hooded": 1002,
      "den": 1003,
      "beach": 1004,
      "bed": 1005,
      "yout": 1006,
      "two": 1007,
      "virt": 1008,
      "col": 1009,
      "blunt": 1010,
      "virtual": 1011,
      "case": 1012,
      "youtuber": 1013,
      "va": 1014,
      "real": 1015,
      "broom": 1016,
      "statue": 1017,
      "itary": 1018,
      "military": 1019,
      "track": 1020,
      "tu": 1021,
      "bug": 1022,
      "upper": 1023,
      "witch": 1024,
      "inting": 1025,
      "chain": 1026,
      "du": 1027,
      "ping": 1028,
      "ore": 1029,
      "ina": 1030,
      "xiv": 1031,
      "pointy": 1032,
      "bic": 1033,
      "station": 1034,
      "oke": 1035,
      "falling": 1036,
      "basket": 1037,
      "sl": 1038,
      "2boys": 1039,
      "pocket": 1040,
      "file": 1041,
      "ror": 1042,
      "sw": 1043,
      "che": 1044,
      "moss": 1045,
      "curtain": 1046,
      "username": 1047,
      "bru": 1048,
      "ish": 1049,
      "era": 1050,
      "frontline": 1051,
      "striped": 1052,
      "kai": 1053,
      "bicycle": 1054,
      "zeld": 1055,
      "utch": 1056,
      "zelda": 1057,
      "io": 1058,
      "heel": 1059,
      "rooftop": 1060,
      "hololive": 1061,
      "brush": 1062,
      "ini": 1063,
      "tokyo": 1064,
      "gh": 1065,
      "sur": 1066,
      "beam": 1067,
      "pen": 1068,
      "siz": 1069,
      "tracks": 1070,
      "bik": 1071,
      "ten": 1072,
      "halo": 1073,
      "mask": 1074,
      "exp": 1075,
      "gg": 1076,
      "sheath": 1077,
      "ai": 1078,
      "dro": 1079,
      "ino": 1080,
      "not": 1081,
      "pad": 1082,
      "cor": 1083,
      "angu": 1084,
      "shoot": 1085,
      "monster": 1086,
      "dutch": 1087,
      "lighting": 1088,
      "yuu": 1089,
      "cli": 1090,
      "comp": 1091,
      "mini": 1092,
      "inn": 1093,
      "shr": 1094,
      "robe": 1095,
      "dapple": 1096,
      "backlighting": 1097,
      "profile": 1098,
      "dappled": 1099,
      "mir": 1100,
      "mix": 1101,
      "ction": 1102,
      "bri": 1103,
      "lane": 1104,
      "shooting": 1105,
      "ression": 1106,
      "cow": 1107,
      "azur": 1108,
      "curtains": 1109,
      "rose": 1110,
      "roll": 1111,
      "color": 1112,
      "tai": 1113,
      "ime": 1114,
      "plate": 1115,
      "paint": 1116,
      "cliff": 1117,
      "fate": 1118,
      "ks": 1119,
      "anguage": 1120,
      "sash": 1121,
      "rou": 1122,
      "van": 1123,
      "only": 1124,
      "shrine": 1125,
      "aning": 1126,
      "umu": 1127,
      "mixed": 1128,
      "language": 1129,
      "iro": 1130,
      "sandals": 1131,
      "expression": 1132,
      "angel": 1133,
      "fru": 1134,
      "bob": 1135,
      "cleav": 1136,
      "expressionless": 1137,
      "fruit": 1138,
      "cleavage": 1139,
      "sto": 1140,
      "rope": 1141,
      "giant": 1142,
      "sen": 1143,
      "sne": 1144,
      "stuff": 1145,
      "stuffed": 1146,
      "bone": 1147,
      "vines": 1148,
      "drop": 1149,
      "ball": 1150,
      "dog": 1151,
      "large": 1152,
      "sneak": 1153,
      "cand": 1154,
      "lad": 1155,
      "ata": 1156,
      "sub": 1157,
      "sneakers": 1158,
      "hon": 1159,
      "shim": 1160,
      "town": 1161,
      "vase": 1162,
      "dle": 1163,
      "mag": 1164,
      "run": 1165,
      "cont": 1166,
      "finger": 1167,
      "swim": 1168,
      "cap": 1169,
      "ju": 1170,
      "pup": 1171,
      "hakama": 1172,
      "glasses": 1173,
      "foreground": 1174,
      "kal": 1175,
      "mid": 1176,
      "uter": 1177,
      "ker": 1178,
      "imbus": 1179,
      "condition": 1180,
      "mirror": 1181,
      "conditioner": 1182,
      "clip": 1183,
      "cumu": 1184,
      "lonimbus": 1185,
      "sunbeam": 1186,
      "aka": 1187,
      "small": 1188,
      "strap": 1189,
      "cumulonimbus": 1190,
      "miniskirt": 1191,
      "ning": 1192,
      "tur": 1193,
      "ull": 1194,
      "loaf": 1195,
      "lace": 1196,
      "heels": 1197,
      "son": 1198,
      "reen": 1199,
      "bookshelf": 1200,
      "rough": 1201,
      "pil": 1202,
      "pillow": 1203,
      "12": 1204,
      "fake": 1205,
      "dol": 1206,
      "through": 1207,
      "tradition": 1208,
      "parent": 1209,
      "snowing": 1210,
      "hul": 1211,
      "drink": 1212,
      "colle": 1213,
      "traditional": 1214,
      "pp": 1215,
      "tat": 1216,
      "zu": 1217,
      "commission": 1218,
      "transparent": 1219,
      "ist": 1220,
      "wrist": 1221,
      "ouch": 1222,
      "screen": 1223,
      "loafers": 1224,
      "horse": 1225,
      "sized": 1226,
      "bou": 1227,
      "cam": 1228,
      "link": 1229,
      "sti": 1230,
      "mahul": 1231,
      "computer": 1232,
      "kalmahul": 1233,
      "bann": 1234,
      "ito": 1235,
      "polearm": 1236,
      "bikini": 1237,
      "off": 1238,
      "arti": 1239,
      "miku": 1240,
      "trash": 1241,
      "oversized": 1242,
      "cowboy": 1243,
      "dis": 1244,
      "past": 1245,
      "ones": 1246,
      "island": 1247,
      "ky": 1248,
      "atch": 1249,
      "stack": 1250,
      "scent": 1251,
      "crescent": 1252,
      "3girls": 1253,
      "leaning": 1254,
      "ature": 1255,
      "stud": 1256,
      "bell": 1257,
      "sune": 1258,
      "pupils": 1259,
      "tone": 1260,
      "clouds": 1261,
      "cry": 1262,
      "vel": 1263,
      "hal": 1264,
      "ator": 1265,
      "rise": 1266,
      "artist": 1267,
      "cu": 1268,
      "map": 1269,
      "ples": 1270,
      "below": 1271,
      "world": 1272,
      "rifle": 1273,
      "choker": 1274,
      "ii": 1275,
      "pse": 1276,
      "neon": 1277,
      "thighs": 1278,
      "spark": 1279,
      "collarbone": 1280,
      "twit": 1281,
      "ving": 1282,
      "broken": 1283,
      "maid": 1284,
      "afar": 1285,
      "waves": 1286,
      "creature": 1287,
      "twitter": 1288,
      "13": 1289,
      "ass": 1290,
      "ily": 1291,
      "oku": 1292,
      "urei": 1293,
      "pom": 1294,
      "sunrise": 1295,
      "cation": 1296,
      "spe": 1297,
      "underwater": 1298,
      "20": 1299,
      "lu": 1300,
      "ws": 1301,
      "cover": 1302,
      "smoke": 1303,
      "morn": 1304,
      "torn": 1305,
      "location": 1306,
      "fingerless": 1307,
      "studio": 1308,
      "ior": 1309,
      "wol": 1310,
      "tom": 1311,
      "media": 1312,
      "cable": 1313,
      "scot": 1314,
      "painting": 1315,
      "camera": 1316,
      "row": 1317,
      "wading": 1318,
      "denim": 1319,
      "wolf": 1320,
      "ascot": 1321,
      "card": 1322,
      "master": 1323,
      "ural": 1324,
      "sil": 1325,
      "sic": 1326,
      "phones": 1327,
      "interior": 1328,
      "tank": 1329,
      "kam": 1330,
      "pu": 1331,
      "port": 1332,
      "wet": 1333,
      "you": 1334,
      "ste": 1335,
      "shield": 1336,
      "candle": 1337,
      "idol": 1338,
      "ora": 1339,
      "boo": 1340,
      "apo": 1341,
      "pixiv": 1342,
      "contrail": 1343,
      "gate": 1344,
      "end": 1345,
      "ske": 1346,
      "oned": 1347,
      "ladder": 1348,
      "99": 1349,
      "cony": 1350,
      "hatsune": 1351,
      "old": 1352,
      "crossed": 1353,
      "crosswalk": 1354,
      "balcony": 1355,
      "11": 1356,
      "em": 1357,
      "breath": 1358,
      "tea": 1359,
      "surreal": 1360,
      "iki": 1361,
      "bam": 1362,
      "hang": 1363,
      "quest": 1364,
      "pipe": 1365,
      "wild": 1366,
      "are": 1367,
      "works": 1368,
      "ripples": 1369,
      "spa": 1370,
      "note": 1371,
      "ele": 1372,
      "pic": 1373,
      "rural": 1374,
      "request": 1375,
      "hairclip": 1376,
      "bandag": 1377,
      "lily": 1378,
      "sid": 1379,
      "online": 1380,
      "aga": 1381,
      "too": 1382,
      "ano": 1383,
      "rice": 1384,
      "toy": 1385,
      "genso": 1386,
      "guard": 1387,
      "flag": 1388,
      "swimsuit": 1389,
      "aband": 1390,
      "cer": 1391,
      "pon": 1392,
      "si": 1393,
      "squ": 1394,
      "ypse": 1395,
      "obi": 1396,
      "fishing": 1397,
      "crossing": 1398,
      "calypse": 1399,
      "sparkle": 1400,
      "apocalypse": 1401,
      "abandoned": 1402,
      "au": 1403,
      "kat": 1404,
      "finn": 1405,
      "pan": 1406,
      "ral": 1407,
      "eyewear": 1408,
      "knight": 1409,
      "anato": 1410,
      "umi": 1411,
      "music": 1412,
      "mas": 1413,
      "gue": 1414,
      "game": 1415,
      "mak": 1416,
      "stark": 1417,
      "check": 1418,
      "finnstark": 1419,
      "ustri": 1420,
      "display": 1421,
      "bamboo": 1422,
      "dan": 1423,
      "pian": 1424,
      "cked": 1425,
      "alth": 1426,
      "iling": 1427,
      "piano": 1428,
      "chig": 1429,
      "whe": 1430,
      "agi": 1431,
      "heart": 1432,
      "mole": 1433,
      "engu": 1434,
      "stick": 1435,
      "idolmaster": 1436,
      "sn": 1437,
      "ty": 1438,
      "health": 1439,
      "lying": 1440,
      "tongue": 1441,
      "cot": 1442,
      "revision": 1443,
      "tile": 1444,
      "butt": 1445,
      "cter": 1446,
      "space": 1447,
      "00": 1448,
      "chan": 1449,
      "lift": 1450,
      "braids": 1451,
      "fireworks": 1452,
      "suitcase": 1453,
      "paintbrush": 1454,
      "scroll": 1455,
      "ump": 1456,
      "flock": 1457,
      "see": 1458,
      "industri": 1459,
      "diff": 1460,
      "magic": 1461,
      "industrial": 1462,
      "war": 1463,
      "apart": 1464,
      "headphones": 1465,
      "minim": 1466,
      "des": 1467,
      "ture": 1468,
      "ze": 1469,
      "haku": 1470,
      "aked": 1471,
      "heads": 1472,
      "fluff": 1473,
      "minimap": 1474,
      "lap": 1475,
      "ered": 1476,
      "stop": 1477,
      "ita": 1478,
      "itar": 1479,
      "planted": 1480,
      "necklace": 1481,
      "vending": 1482,
      "interface": 1483,
      "sak": 1484,
      "blade": 1485,
      "chest": 1486,
      "chara": 1487,
      "aircraft": 1488,
      "screenshot": 1489,
      "character": 1490,
      "pud": 1491,
      "val": 1492,
      "plan": 1493,
      "toget": 1494,
      "suya": 1495,
      "together": 1496,
      "logo": 1497,
      "stal": 1498,
      "ssel": 1499,
      "tassel": 1500,
      "mocha": 1501,
      "waist": 1502,
      "navel": 1503,
      "cotton": 1504,
      "tak": 1505,
      "hei": 1506,
      "crack": 1507,
      "brick": 1508,
      "planet": 1509,
      "fer": 1510,
      "ons": 1511,
      "eyebro": 1512,
      "puddle": 1513,
      "ee": 1514,
      "hy": 1515,
      "key": 1516,
      "yuk": 1517,
      "ima": 1518,
      "bowl": 1519,
      "partial": 1520,
      "kancolle": 1521,
      "feathers": 1522,
      "sides": 1523,
      "ax": 1524,
      "sup": 1525,
      "vy": 1526,
      "guitar": 1527,
      "cl": 1528,
      "zuki": 1529,
      "inu": 1530,
      "tattoo": 1531,
      "hanging": 1532,
      "picture": 1533,
      "94": 1534,
      "zo": 1535,
      "ero": 1536,
      "bucket": 1537,
      "riff": 1538,
      "liqu": 1539,
      "iao": 1540,
      "akura": 1541,
      "geta": 1542,
      "eyebrows": 1543,
      "cir": 1544,
      "my": 1545,
      "ney": 1546,
      "eno": 1547,
      "ili": 1548,
      "eli": 1549,
      "demon": 1550,
      "tele": 1551,
      "honkai": 1552,
      "gl": 1553,
      "tle": 1554,
      "yuki": 1555,
      "ena": 1556,
      "itsu": 1557,
      "09": 1558,
      "yan": 1559,
      "rier": 1560,
      "female": 1561,
      "poster": 1562,
      "pond": 1563,
      "dang": 1564,
      "ek": 1565,
      "mic": 1566,
      "ps": 1567,
      "tor": 1568,
      "ceiling": 1569,
      "mug": 1570,
      "bat": 1571,
      "park": 1572,
      "cell": 1573,
      "couch": 1574,
      "ward": 1575,
      "oro": 1576,
      "host": 1577,
      "illust": 1578,
      "shichig": 1579,
      "cutout": 1580,
      "midriff": 1581,
      "shichigatsu": 1582,
      "gold": 1583,
      "het": 1584,
      "skyline": 1585,
      "aya": 1586,
      "tokyogenso": 1587,
      "crystal": 1588,
      "plat": 1589,
      "saw": 1590,
      "handbag": 1591,
      "ally": 1592,
      "spik": 1593,
      "spring": 1594,
      "partially": 1595,
      "fang": 1596,
      "ghost": 1597,
      "han": 1598,
      "js": 1599,
      "arrow": 1600,
      "tab": 1601,
      "elbow": 1602,
      "miko": 1603,
      "pier": 1604,
      "straw": 1605,
      "sour": 1606,
      "dusk": 1607,
      "buttons": 1608,
      "cellphone": 1609,
      "fjs": 1610,
      "har": 1611,
      "mari": 1612,
      "shark": 1613,
      "itch": 1614,
      "coff": 1615,
      "crow": 1616,
      "covered": 1617,
      "liquid": 1618,
      "fjsmu": 1619,
      "ash": 1620,
      "ced": 1621,
      "mou": 1622,
      "pal": 1623,
      "ess": 1624,
      "borne": 1625,
      "milky": 1626,
      "bloodborne": 1627,
      "wheel": 1628,
      "ger": 1629,
      "tru": 1630,
      "ings": 1631,
      "rical": 1632,
      "vement": 1633,
      "const": 1634,
      "barrier": 1635,
      "crane": 1636,
      "katana": 1637,
      "coffee": 1638,
      "pie": 1639,
      "zet": 1640,
      "shap": 1641,
      "string": 1642,
      "chim": 1643,
      "floral": 1644,
      "ryou": 1645,
      "pockets": 1646,
      "snake": 1647,
      "shaped": 1648,
      "shore": 1649,
      "amano": 1650,
      "rying": 1651,
      "phy": 1652,
      "maple": 1653,
      "silver": 1654,
      "wr": 1655,
      "zen": 1656,
      "enna": 1657,
      "shir": 1658,
      "atting": 1659,
      "bear": 1660,
      "carpet": 1661,
      "playing": 1662,
      "squatting": 1663,
      "zettai": 1664,
      "ryouiki": 1665,
      "!,": 1666,
      "dou": 1667,
      "tabi": 1668,
      "rick": 1669,
      "feathered": 1670,
      "running": 1671,
      "drinking": 1672,
      "bin": 1673,
      "mat": 1674,
      "san": 1675,
      "ance": 1676,
      "antenna": 1677,
      "bul": 1678,
      "pointing": 1679,
      "lich": 1680,
      "mush": 1681,
      "wrists": 1682,
      "banner": 1683,
      "14": 1684,
      "cig": 1685,
      "oo": 1686,
      "ender": 1687,
      "unt": 1688,
      "urlich": 1689,
      "grand": 1690,
      "phili": 1691,
      "skelet": 1692,
      "philipp": 1693,
      "net": 1694,
      "ppy": 1695,
      "pengu": 1696,
      "ley": 1697,
      "apot": 1698,
      "tiles": 1699,
      "differ": 1700,
      "support": 1701,
      "cone": 1702,
      "ged": 1703,
      "gard": 1704,
      "tte": 1705,
      "imu": 1706,
      "teapot": 1707,
      "streaked": 1708,
      "gaunt": 1709,
      "stool": 1710,
      "penguin": 1711,
      "gauntlet": 1712,
      "28": 1713,
      "jou": 1714,
      "oil": 1715,
      "shion": 1716,
      "tion": 1717,
      "sleeping": 1718,
      "quet": 1719,
      "brace": 1720,
      "transmission": 1721,
      "morning": 1722,
      "teacup": 1723,
      "source": 1724,
      "mushroom": 1725,
      "ible": 1726,
      "nar": 1727,
      "sli": 1728,
      "oth": 1729,
      "blem": 1730,
      "merged": 1731,
      "gyok": 1732,
      "submerged": 1733,
      "emblem": 1734,
      "arette": 1735,
      "cigarette": 1736,
      "hime": 1737,
      "ive": 1738,
      "mar": 1739,
      "rin": 1740,
      "spo": 1741,
      "oda": 1742,
      "mechan": 1743,
      "ggles": 1744,
      "sheathed": 1745,
      "bouquet": 1746,
      "piece": 1747,
      "skeleton": 1748,
      "gauntlets": 1749,
      "mechanic": 1750,
      "2others": 1751,
      "dirt": 1752,
      "pine": 1753,
      "use": 1754,
      "skyrick": 1755,
      "boom": 1756,
      "nose": 1757,
      "rainbow": 1758,
      "slan": 1759,
      "hakuurei": 1760,
      "9413": 1761,
      "chimney": 1762,
      "bracelet": 1763,
      "skyrick9413": 1764,
      "40": 1765,
      "call": 1766,
      "gar": 1767,
      "hun": 1768,
      "hara": 1769,
      "inc": 1770,
      "rest": 1771,
      "rag": 1772,
      "plane": 1773,
      "isshu": 1774,
      "waisshu": 1775,
      "symmet": 1776,
      "sougyok": 1777,
      "paddy": 1778,
      "elect": 1779,
      "sougyokyuu": 1780,
      "tar": 1781,
      "tun": 1782,
      "tri": 1783,
      "skull": 1784,
      "uma": 1785,
      "iza": 1786,
      "smoking": 1787,
      "underwear": 1788,
      "symmetrical": 1789,
      "18": 1790,
      "asymmetrical": 1791,
      "ura": 1792,
      "igra": 1793,
      "christ": 1794,
      "pless": 1795,
      "tem": 1796,
      "artphone": 1797,
      "moonslan": 1798,
      "knees": 1799,
      "smartphone": 1800,
      "goggles": 1801,
      "ankle": 1802,
      "moonslanstudio": 1803,
      "hiro": 1804,
      "wl": 1805,
      "loon": 1806,
      "leot": 1807,
      "shing": 1808,
      "ital": 1809,
      "chro": 1810,
      "airplane": 1811,
      "rust": 1812,
      "bodysuit": 1813,
      "ason": 1814,
      "chainsaw": 1815,
      "banned": 1816,
      "093": 1817,
      "truck": 1818,
      "garden": 1819,
      "sliding": 1820,
      "calligra": 1821,
      "leotard": 1822,
      "calligraphy": 1823,
      "mes": 1824,
      "pt": 1825,
      "wi": 1826,
      "xeno": 1827,
      "any": 1828,
      "read": 1829,
      "doll": 1830,
      "bur": 1831,
      "crown": 1832,
      "stream": 1833,
      "balloon": 1834,
      "narok": 1835,
      "ragnarok": 1836,
      "christmas": 1837,
      "38": 1838,
      "59": 1839,
      "cycle": 1840,
      "hin": 1841,
      "tsu": 1842,
      "xiao": 1843,
      "sca": 1844,
      "rod": 1845,
      "ila": 1846,
      "und": 1847,
      "hold": 1848,
      "sunflower": 1849,
      "wavy": 1850,
      "ellation": 1851,
      "xenoblade": 1852,
      "cil": 1853,
      "kag": 1854,
      "ming": 1855,
      "oni": 1856,
      "imaru": 1857,
      "seag": 1858,
      "susp": 1859,
      "verse": 1860,
      "mouse": 1861,
      "constellation": 1862,
      "seagull": 1863,
      "4girls": 1864,
      "eating": 1865,
      "lk": 1866,
      "happy": 1867,
      "sty": 1868,
      "mizuki": 1869,
      "mail": 1870,
      "cave": 1871,
      "iko": 1872,
      "tokin": 1873,
      "bey": 1874,
      "ds": 1875,
      "sat": 1876,
      "sakura": 1877,
      "tan": 1878,
      "za": 1879,
      "ira": 1880,
      "oto": 1881,
      "ako": 1882,
      "facial": 1883,
      "bandages": 1884,
      "gan": 1885,
      "vi": 1886,
      "wad": 1887,
      "anron": 1888,
      "shame": 1889,
      "stand": 1890,
      "ties": 1891,
      "oka": 1892,
      "isbey": 1893,
      "shoujo": 1894,
      "carrying": 1895,
      "tub": 1896,
      "half": 1897,
      "danganron": 1898,
      "shameimaru": 1899,
      "isbeyvan": 1900,
      "danganronpa": 1901,
      "24": 1902,
      "ab": 1903,
      "pouch": 1904,
      "zi": 1905,
      "ram": 1906,
      "new": 1907,
      "rubble": 1908,
      "fau": 1909,
      "kenzo": 1910,
      "shuu": 1911,
      "pencil": 1912,
      "shimena": 1913,
      "panties": 1914,
      "palm": 1915,
      "electri": 1916,
      "shimenawa": 1917,
      "mill": 1918,
      "oi": 1919,
      "por": 1920,
      "ren": 1921,
      "ong": 1922,
      "radi": 1923,
      "fol": 1924,
      "lif": 1925,
      "grin": 1926,
      "formal": 1927,
      "universe": 1928,
      "spread": 1929,
      "nails": 1930,
      "swept": 1931,
      "elier": 1932,
      "hunter": 1933,
      "bill": 1934,
      "ul": 1935,
      "igan": 1936,
      "rol": 1937,
      "sol": 1938,
      "tiss": 1939,
      "season": 1940,
      "headdress": 1941,
      "mei": 1942,
      "ful": 1943,
      "overcast": 1944,
      "keh": 1945,
      "hakurei": 1946,
      "10": 1947,
      "cuff": 1948,
      "wre": 1949,
      "love": 1950,
      "iger": 1951,
      "bokeh": 1952,
      "web": 1953,
      "oko": 1954,
      "tomo": 1955,
      "ope": 1956,
      "soul": 1957,
      "tucked": 1958,
      "cardigan": 1959,
      "messy": 1960,
      "suspender": 1961,
      "folding": 1962,
      "ac": 1963,
      "ny": 1964,
      "ople": 1965,
      "rd": 1966,
      "store": 1967,
      "sco": 1968,
      "anda": 1969,
      "toes": 1970,
      "mob": 1971,
      "people": 1972,
      "windmill": 1973,
      "micro": 1974,
      "mechanical": 1975,
      "tissue": 1976,
      "cuffs": 1977,
      "3boys": 1978,
      "class": 1979,
      "eu": 1980,
      "fair": 1981,
      "ped": 1982,
      "pag": 1983,
      "rel": 1984,
      "hachi": 1985,
      "blouse": 1986,
      "colour": 1987,
      "flat": 1988,
      "morncolour": 1989,
      "steam": 1990,
      "television": 1991,
      "jar": 1992,
      "pper": 1993,
      "aker": 1994,
      "moonlight": 1995,
      "with": 1996,
      "dawn": 1997,
      "tenta": 1998,
      "117": 1999,
      "eck": 2000,
      "hed": 2001,
      "mori": 2002,
      "pit": 2003,
      "slip": 2004,
      "sia": 2005,
      "tlen": 2006,
      "ert": 2007,
      "ige": 2008,
      "skin": 2009,
      "chur": 2010,
      "forward": 2011,
      "sidewalk": 2012,
      "sawit": 2013,
      "fisheye": 2014,
      "sweat": 2015,
      "colorful": 2016,
      "turtlen": 2017,
      "sawitou": 2018,
      "turtleneck": 2019,
      "aid": 2020,
      "bud": 2021,
      "cing": 2022,
      "load": 2023,
      "shar": 2024,
      "elly": 2025,
      "deer": 2026,
      "bandana": 2027,
      "nail": 2028,
      "mete": 2029,
      "calend": 2030,
      "azer": 2031,
      "ava": 2032,
      "ishing": 2033,
      "desert": 2034,
      "souls": 2035,
      "fairy": 2036,
      "church": 2037,
      "calendar": 2038,
      "camp": 2039,
      "dar": 2040,
      "gal": 2041,
      "jelly": 2042,
      "mono": 2043,
      "vill": 2044,
      "umo": 2045,
      "ude": 2046,
      "imori": 2047,
      "gener": 2048,
      "base": 2049,
      "spear": 2050,
      "chalk": 2051,
      "nier": 2052,
      "vanishing": 2053,
      "pagoda": 2054,
      "jellyfish": 2055,
      "ling": 2056,
      "tears": 2057,
      "watch": 2058,
      "blazer": 2059,
      "una": 2060,
      "sei": 2061,
      "ctive": 2062,
      "strapless": 2063,
      "amiya": 2064,
      "kantai": 2065,
      "shima": 2066,
      "collection": 2067,
      "bandaged": 2068,
      "platform": 2069,
      "double": 2070,
      "undry": 2071,
      "village": 2072,
      "cla": 2073,
      "ika": 2074,
      "oh": 2075,
      "pc": 2076,
      "qi": 2077,
      "yor": 2078,
      "zz": 2079,
      "itor": 2080,
      "ilt": 2081,
      "hole": 2082,
      "foli": 2083,
      "pool": 2084,
      "wine": 2085,
      "rug": 2086,
      "laundry": 2087,
      "arium": 2088,
      "banish": 2089,
      "corne": 2090,
      "ilable": 2091,
      "electric": 2092,
      "classroom": 2093,
      "available": 2094,
      "chalkboard": 2095,
      "foliage": 2096,
      "banishment": 2097,
      "ails": 2098,
      "fri": 2099,
      "jan": 2100,
      "mary": 2101,
      "year": 2102,
      "iris": 2103,
      "reimu": 2104,
      "alice": 2105,
      "sundress": 2106,
      "ctor": 2107,
      "elden": 2108,
      "ernails": 2109,
      "waving": 2110,
      "pers": 2111,
      "drawing": 2112,
      "koi": 2113,
      "motorcycle": 2114,
      "fingernails": 2115,
      "difference": 2116,
      "radio": 2117,
      "billboard": 2118,
      "cake": 2119,
      "cage": 2120,
      "ran": 2121,
      "dot": 2122,
      "address": 2123,
      "crop": 2124,
      "bandaid": 2125,
      "beret": 2126,
      "sheet": 2127,
      "checkered": 2128,
      "style": 2129,
      "baseball": 2130,
      "bds": 2131,
      "hik": 2132,
      "lay": 2133,
      "ner": 2134,
      "oubds": 2135,
      "eline": 2136,
      "ayu": 2137,
      "third": 2138,
      "sea": 2139,
      "towel": 2140,
      "sail": 2141,
      "hououbds": 2142,
      "gem": 2143,
      "ways": 2144,
      "fantasia": 2145,
      "cabin": 2146,
      "walkway": 2147,
      "shopping": 2148,
      "nij": 2149,
      "sakimori": 2150,
      "tubes": 2151,
      "generated": 2152,
      ".,": 2153,
      "799": 2154,
      "a38": 2155,
      "log": 2156,
      "majo": 2157,
      "armpit": 2158,
      "sau": 2159,
      "clothing": 2160,
      "person": 2161,
      "perspe": 2162,
      "overall": 2163,
      "dish": 2164,
      "hip": 2165,
      "nife": 2166,
      "stomach": 2167,
      "apartment": 2168,
      "suyabi": 2169,
      "suyasuyabi": 2170,
      "40799": 2171,
      "lifeline": 2172,
      "a3840799": 2173,
      "perspective": 2174,
      "a384079959": 2175,
      "15": 2176,
      "45": 2177,
      "god": 2178,
      "hid": 2179,
      "knife": 2180,
      "lum": 2181,
      "yi": 2182,
      "scope": 2183,
      "blings": 2184,
      "shiny": 2185,
      "yuri": 2186,
      "barrel": 2187,
      "column": 2188,
      "ends": 2189,
      "siblings": 2190,
      "sharp": 2191,
      "layered": 2192,
      "22": 2193,
      "ace": 2194,
      "ev": 2195,
      "fen": 2196,
      "rack": 2197,
      "alco": 2198,
      "eyel": 2199,
      "polish": 2200,
      "uru": 2201,
      "mism": 2202,
      "isan": 2203,
      "tray": 2204,
      "monitor": 2205,
      "straight": 2206,
      "place": 2207,
      "helm": 2208,
      "rolled": 2209,
      "meteor": 2210,
      "alcohol": 2211,
      "3rd": 2212,
      "ix": 2213,
      "lat": 2214,
      "mks": 2215,
      "lot": 2216,
      "locked": 2217,
      "shiro": 2218,
      "rian": 2219,
      "wning": 2220,
      "bread": 2221,
      "sideways": 2222,
      "mea": 2223,
      "janes": 2224,
      "47": 2225,
      "^,": 2226,
      "ahead": 2227,
      "bon": 2228,
      "cy": 2229,
      "just": 2230,
      "saki": 2231,
      "rei": 2232,
      "around": 2233,
      "shiz": 2234,
      "dock": 2235,
      "icate": 2236,
      "pau": 2237,
      "pavement": 2238,
      "meg": 2239,
      "kiro": 2240,
      "visible": 2241,
      "tube": 2242,
      "spikes": 2243,
      "spoon": 2244,
      "temple": 2245,
      "08": 2246,
      "ao": 2247,
      "bine": 2248,
      "caf": 2249,
      "knot": 2250,
      "poke": 2251,
      "ration": 2252,
      "ergy": 2253,
      "energy": 2254,
      "soda": 2255,
      "tied": 2256,
      "adjust": 2257,
      "sekiro": 2258,
      "frog": 2259,
      "hua": 2260,
      "fingers": 2261,
      "hydr": 2262,
      "meadow": 2263,
      "adjusting": 2264,
      "19": 2265,
      "bath": 2266,
      "vik": 2267,
      "eling": 2268,
      "veil": 2269,
      "faceless": 2270,
      "ellite": 2271,
      "hong": 2272,
      "hetero": 2273,
      "satellite": 2274,
      "pedest": 2275,
      "pokemon": 2276,
      "cou": 2277,
      "ised": 2278,
      "non": 2279,
      "nag": 2280,
      "sam": 2281,
      "ui": 2282,
      "orb": 2283,
      "order": 2284,
      "ching": 2285,
      "charm": 2286,
      "aged": 2287,
      "fuji": 2288,
      "braided": 2289,
      "gura": 2290,
      "armored": 2291,
      "pped": 2292,
      "cabinet": 2293,
      "cafe": 2294,
      "aber": 2295,
      "kou": 2296,
      "kun": 2297,
      "kore": 2298,
      "round": 2299,
      "sim": 2300,
      "sion": 2301,
      "sink": 2302,
      "inmu": 2303,
      "alley": 2304,
      "blind": 2305,
      "chin": 2306,
      "sole": 2307,
      "ris": 2308,
      "ff14": 2309,
      "frown": 2310,
      "estar": 2311,
      "jeans": 2312,
      "extra": 2313,
      "ldron": 2314,
      "making": 2315,
      "matic": 2316,
      "bullet": 2317,
      "chromatic": 2318,
      "ganyu": 2319,
      "nijisan": 2320,
      "aberration": 2321,
      "nijisanji": 2322,
      "05": 2323,
      "jun": 2324,
      "lin": 2325,
      "lim": 2326,
      "tilt": 2327,
      "wy": 2328,
      "wat": 2329,
      "zero": 2330,
      "rea": 2331,
      "ckle": 2332,
      "alu": 2333,
      "cola": 2334,
      "tao": 2335,
      "plicate": 2336,
      "hour": 2337,
      "shower": 2338,
      "spire": 2339,
      "kneeling": 2340,
      "furu": 2341,
      "manhole": 2342,
      "party": 2343,
      "prints": 2344,
      "duplicate": 2345,
      "laptop": 2346,
      "axy": 2347,
      "slippers": 2348,
      "galaxy": 2349,
      "pedestrian": 2350,
      "16": 2351,
      "33": 2352,
      "egg": 2353,
      "flip": 2354,
      "iss": 2355,
      "kyo": 2356,
      "lt": 2357,
      "mit": 2358,
      "yak": 2359,
      "cking": 2360,
      "chime": 2361,
      "ther": 2362,
      "mado": 2363,
      "footprints": 2364,
      "utsu": 2365,
      "para": 2366,
      "cushion": 2367,
      "torch": 2368,
      "suspenders": 2369,
      "overalls": 2370,
      "lumine": 2371,
      "korean": 2372,
      "dest": 2373,
      "kin": 2374,
      "kar": 2375,
      "tw": 2376,
      "trip": 2377,
      "shide": 2378,
      "adv": 2379,
      "agram": 2380,
      "lion": 2381,
      "aking": 2382,
      "mae": 2383,
      "sui": 2384,
      "laced": 2385,
      "achie": 2386,
      "motion": 2387,
      "chop": 2388,
      "crate": 2389,
      "size": 2390,
      "bike": 2391,
      "inner": 2392,
      "colors": 2393,
      "swimming": 2394,
      "juu": 2395,
      "spiked": 2396,
      "garter": 2397,
      "meiji": 2398,
      "parasol": 2399,
      "dig": 2400,
      "ep": 2401,
      "fes": 2402,
      "haru": 2403,
      "lers": 2404,
      "yam": 2405,
      "cos": 2406,
      "ider": 2407,
      "unlocked": 2408,
      "antlers": 2409,
      "sekai": 2410,
      "seiza": 2411,
      "shoe": 2412,
      "shohei": 2413,
      "yao": 2414,
      "komeiji": 2415,
      "ggage": 2416,
      "sticks": 2417,
      "luggage": 2418,
      "cardboard": 2419,
      "ault": 2420,
      "microphone": 2421,
      "hachiya": 2422,
      "tentacles": 2423,
      "armpits": 2424,
      "achievement": 2425,
      "men": 2426,
      "refer": 2427,
      "hay": 2428,
      "atar": 2429,
      "scrun": 2430,
      "blank": 2431,
      "bot": 2432,
      "iden": 2433,
      "tice": 2434,
      "buckle": 2435,
      "lighthouse": 2436,
      "lies": 2437,
      "globe": 2438,
      "ruction": 2439,
      "fasnake": 2440,
      "chihiro": 2441,
      "gohei": 2442,
      "forehead": 2443,
      "dai": 2444,
      "crying": 2445,
      "assault": 2446,
      "ashes": 2447,
      "madoka": 2448,
      "chopsticks": 2449,
      "fasnakegod": 2450,
      "aby": 2451,
      "dand": 2452,
      "ja": 2453,
      "nis": 2454,
      "sake": 2455,
      "wang": 2456,
      "wish": 2457,
      "hai": 2458,
      "chron": 2459,
      "etsu": 2460,
      "ics": 2461,
      "neko": 2462,
      "armband": 2463,
      "debri": 2464,
      "icles": 2465,
      "work": 2466,
      "drawer": 2467,
      "kuro": 2468,
      "instagram": 2469,
      "hug": 2470,
      "avatar": 2471,
      "candy": 2472,
      "tomb": 2473,
      "dancer": 2474,
      "stickers": 2475,
      "yukata": 2476,
      "eyelashes": 2477,
      "lattice": 2478,
      "pauldron": 2479,
      "tripdancer": 2480,
      "scrunchie": 2481,
      "abyss": 2482,
      "chronicles": 2483,
      "debris": 2484,
      "dino": 2485,
      "jam": 2486,
      "kk": 2487,
      "kitch": 2488,
      "patch": 2489,
      "sator": 2490,
      "wand": 2491,
      "arsh": 2492,
      "boob": 2493,
      "chand": 2494,
      "sopu": 2495,
      "tival": 2496,
      "elion": 2497,
      "ella": 2498,
      "thestar": 2499,
      "whi": 2500,
      "lightning": 2501,
      "upside": 2502,
      "urban": 2503,
      "tainer": 2504,
      "pasopu": 2505,
      "suz": 2506,
      "veranda": 2507,
      "isame": 2508,
      "isumi": 2509,
      "container": 2510,
      "pepper": 2511,
      "firef": 2512,
      "kirisame": 2513,
      "gawr": 2514,
      "keyboard": 2515,
      "glance": 2516,
      "parking": 2517,
      "harbor": 2518,
      "marisa": 2519,
      "wada": 2520,
      "faux": 2521,
      "festival": 2522,
      "dandelion": 2523,
      "tombstone": 2524,
      "kitchen": 2525,
      "satoru": 2526,
      "chandelier": 2527,
      "thestarwish": 2528,
      "pasoputi": 2529,
      "23": 2530,
      "ces": 2531,
      "dust": 2532,
      "jin": 2533,
      "jum": 2534,
      "kuk": 2535,
      "ler": 2536,
      "make": 2537,
      "ns": 2538,
      "nu": 2539,
      "nin": 2540,
      "nel": 2541,
      "lock": 2542,
      "refr": 2543,
      "ham": 2544,
      "stri": 2545,
      "alpc": 2546,
      "ete": 2547,
      "seat": 2548,
      "ctile": 2549,
      "breastplate": 2550,
      "spider": 2551,
      "lord": 2552,
      "angea": 2553,
      "draw": 2554,
      "enched": 2555,
      "milk": 2556,
      "framed": 2557,
      "angelion": 2558,
      "clenched": 2559,
      "itsuki": 2560,
      "tabisumi": 2561,
      "piercing": 2562,
      "igerator": 2563,
      "friends": 2564,
      "hiking": 2565,
      "evangelion": 2566,
      "hydrangea": 2567,
      "reading": 2568,
      "refrigerator": 2569,
      "alpcmas": 2570,
      "tabisumika": 2571,
      "aer": 2572,
      "ef": 2573,
      "lit": 2574,
      "mb": 2575,
      "pat": 2576,
      "pina": 2577,
      "pump": 2578,
      "qd": 2579,
      "qo": 2580,
      "sal": 2581,
      "swing": 2582,
      "self": 2583,
      "tang": 2584,
      "zhong": 2585,
      "esis": 2586,
      "rait": 2587,
      "raised": 2588,
      "china": 2589,
      "tical": 2590,
      "okou": 2591,
      "andro": 2592,
      "tol": 2593,
      "miya": 2594,
      "horror": 2595,
      "suzu": 2596,
      "vern": 2597,
      "clothesline": 2598,
      "uka": 2599,
      "chick": 2600,
      "teddy": 2601,
      "kemono": 2602,
      "legends": 2603,
      "sena": 2604,
      "axe": 2605,
      "cirno": 2606,
      "glint": 2607,
      "wyvern": 2608,
      "cosplay": 2609,
      "fireflies": 2610,
      "pinafore": 2611,
      "aa": 2612,
      "awning": 2613,
      "cin": 2614,
      "dam": 2615,
      "fit": 2616,
      "got": 2617,
      "gears": 2618,
      "goth": 2619,
      "lan": 2620,
      "nous": 2621,
      "nino": 2622,
      "pir": 2623,
      "pback": 2624,
      "wu": 2625,
      "yama": 2626,
      "inde": 2627,
      "hall": 2628,
      "itsub": 2629,
      "hodar": 2630,
      "chen": 2631,
      "soles": 2632,
      "hollow": 2633,
      "watering": 2634,
      "humpback": 2635,
      "mifuru": 2636,
      "most": 2637,
      "cropped": 2638,
      "jiji": 2639,
      "goo": 2640,
      "yoshi": 2641,
      "sumi": 2642,
      "gynous": 2643,
      "company": 2644,
      "roller": 2645,
      "speaker": 2646,
      "kamitsub": 2647,
      "cracked": 2648,
      "circle": 2649,
      "telescope": 2650,
      "tarte": 2651,
      "tunic": 2652,
      "246": 2653,
      "mismatch": 2654,
      "menu": 2655,
      "blanket": 2656,
      "pauldrons": 2657,
      "androgynous": 2658,
      "hodarake": 2659,
      "kamitsubaki": 2660,
      "01": 2661,
      "cart": 2662,
      "dil": 2663,
      "die": 2664,
      "gor": 2665,
      "ichi": 2666,
      "kit": 2667,
      "katsu": 2668,
      "pin": 2669,
      "enced": 2670,
      "rot": 2671,
      "ede": 2672,
      "tam": 2673,
      "soaking": 2674,
      "pol": 2675,
      "bead": 2676,
      "pajam": 2677,
      "olin": 2678,
      "sao": 2679,
      "spot": 2680,
      "berser": 2681,
      "ame246": 2682,
      "jojo": 2683,
      "steel": 2684,
      "skeb": 2685,
      "itabi": 2686,
      "tabitabi": 2687,
      "europe": 2688,
      "cornea": 2689,
      "koishi": 2690,
      "hidden": 2691,
      "bulletin": 2692,
      "referenced": 2693,
      "zhongli": 2694,
      "ninomae": 2695,
      "mostima": 2696,
      "action": 2697,
      "cane": 2698,
      "dly": 2699,
      "kur": 2700,
      "mal": 2701,
      "nan": 2702,
      "nit": 2703,
      "neng": 2704,
      "spl": 2705,
      "void": 2706,
      "vator": 2707,
      "ying": 2708,
      "inery": 2709,
      "intak": 2710,
      "reso": 2711,
      "reme": 2712,
      "roots": 2713,
      "booth": 2714,
      "ote": 2715,
      "tareme": 2716,
      "imon": 2717,
      "pod": 2718,
      "posa": 2719,
      "great": 2720,
      "dev": 2721,
      "dead": 2722,
      "vertical": 2723,
      "archer": 2724,
      "melon": 2725,
      "conven": 2726,
      "bridal": 2727,
      "peek": 2728,
      "eastern": 2729,
      "kien": 2730,
      "legendarium": 2731,
      "duck": 2732,
      "surdly": 2733,
      "lution": 2734,
      "type": 2735,
      "tunnel": 2736,
      "absurdly": 2737,
      "advarcher": 2738,
      "kukka": 2739,
      "tolkien": 2740,
      "intakes": 2741,
      "resolution": 2742,
      "57": 2743,
      "aur": 2744,
      "kon": 2745,
      "mor": 2746,
      "os": 2747,
      "snat": 2748,
      "uta": 2749,
      "vic": 2750,
      "wire": 2751,
      "iron": 2752,
      "eru": 2753,
      "lol": 2754,
      "scl": 2755,
      "iti": 2756,
      "iting": 2757,
      "sunglasses": 2758,
      "miso": 2759,
      "graff": 2760,
      "death": 2761,
      "thighhigh": 2762,
      "kaz": 2763,
      "cong": 2764,
      "canal": 2765,
      "machinery": 2766,
      "slit": 2767,
      "juli": 2768,
      "disposa": 2769,
      "wreath": 2770,
      "loaded": 2771,
      "whisk": 2772,
      "european": 2773,
      "aurora": 2774,
      "snatti": 2775,
      "graffiti": 2776,
      "disposable": 2777,
      "bad": 2778,
      "bino": 2779,
      "jing": 2780,
      "jutsu": 2781,
      "kom": 2782,
      "trail": 2783,
      "ense": 2784,
      "reach": 2785,
      "arn": 2786,
      "shig": 2787,
      "hairstyle": 2788,
      "dome": 2789,
      "raha": 2790,
      "chou": 2791,
      "mik": 2792,
      "mizu": 2793,
      "fork": 2794,
      "pale": 2795,
      "suke": 2796,
      "illa": 2797,
      "headband": 2798,
      "shouji": 2799,
      "kajiji": 2800,
      "shawl": 2801,
      "lette": 2802,
      "scarlet": 2803,
      "yucong": 2804,
      "many": 2805,
      "cheek": 2806,
      "against": 2807,
      "ferris": 2808,
      "wreck": 2809,
      "storefront": 2810,
      "sclera": 2811,
      "juliet": 2812,
      "reaching": 2813,
      "77": 2814,
      "86": 2815,
      "abi": 2816,
      "cen": 2817,
      "fountain": 2818,
      "made": 2819,
      "sora": 2820,
      "tengu": 2821,
      "vii": 2822,
      "loween": 2823,
      "oron": 2824,
      "stor": 2825,
      "raction": 2826,
      "cobble": 2827,
      "tact": 2828,
      "tales": 2829,
      "wei": 2830,
      "amus": 2831,
      "fold": 2832,
      "pop": 2833,
      "pops": 2834,
      "agon": 2835,
      "mac": 2836,
      "airship": 2837,
      "shio": 2838,
      "french": 2839,
      "spir": 2840,
      "contact": 2841,
      "diving": 2842,
      "yuuki": 2843,
      "yae": 2844,
      "horned": 2845,
      "halloween": 2846,
      "portrait": 2847,
      "notebook": 2848,
      "gensokyo": 2849,
      "diffraction": 2850,
      "cinder": 2851,
      "berserk": 2852,
      "cobblestone": 2853,
      "popsicle": 2854,
      "0sco": 2855,
      "81": 2856,
      "cent": 2857,
      "ei": 2858,
      "gings": 2859,
      "hir": 2860,
      "num": 2861,
      "nude": 2862,
      "wen": 2863,
      "resta": 2864,
      "outfit": 2865,
      "oter": 2866,
      "otete": 2867,
      "une": 2868,
      "well": 2869,
      "okest": 2870,
      "buki": 2871,
      "ada": 2872,
      "ody": 2873,
      "urant": 2874,
      "apex": 2875,
      "mahou": 2876,
      "paw": 2877,
      "suka": 2878,
      "enge": 2879,
      "usami": 2880,
      "geshi": 2881,
      "leggings": 2882,
      "thighlet": 2883,
      "kazu": 2884,
      "parody": 2885,
      "eyepatch": 2886,
      "smokest": 2887,
      "arashi": 2888,
      "manta": 2889,
      "xiang": 2890,
      "atsuki": 2891,
      "stripes": 2892,
      "cube": 2893,
      "kamis": 2894,
      "guards": 2895,
      "makoron": 2896,
      "battle": 2897,
      "dirty": 2898,
      "harasu": 2899,
      "urai": 2900,
      "anyotete": 2901,
      "scooter": 2902,
      "117117": 2903,
      "digital": 2904,
      "sakeharasu": 2905,
      "drawstring": 2906,
      "mb0sco": 2907,
      "hallway": 2908,
      "cinderella": 2909,
      "restaurant": 2910,
      "smokestack": 2911,
      "makoron117117": 2912,
      "3others": 2913,
      "<,": 2914,
      "fic": 2915,
      "last": 2916,
      "nic": 2917,
      "nagi": 2918,
      "og": 2919,
      "pre": 2920,
      "ritch": 2921,
      "vol": 2922,
      "er8": 2923,
      "ening": 2924,
      "atelier": 2925,
      "dove": 2926,
      "raiden": 2927,
      "sswalk": 2928,
      "ette": 2929,
      "umamus": 2930,
      "oki": 2931,
      "flood": 2932,
      "watermelon": 2933,
      "mia": 2934,
      "muted": 2935,
      "bbard": 2936,
      "grassland": 2937,
      "backless": 2938,
      "genesis": 2939,
      "ization": 2940,
      "eldritch": 2941,
      "cathed": 2942,
      "bright": 2943,
      "kimyou": 2944,
      "naut": 2945,
      "hui": 2946,
      "bedroom": 2947,
      "coral": 2948,
      "turtle": 2949,
      "bouken": 2950,
      "tyb": 2951,
      "magica": 2952,
      "warship": 2953,
      "writing": 2954,
      "scabbard": 2955,
      "waddle": 2956,
      "sailboat": 2957,
      "twice": 2958,
      "index": 2959,
      "abisswalk": 2960,
      "umamusume": 2961,
      "grasslands": 2962,
      "cathedral": 2963,
      "abisswalker8": 2964,
      "din": 2965,
      "dre": 2966,
      "iyan": 2967,
      "jet": 2968,
      "jiro": 2969,
      "kyuu": 2970,
      "lal": 2971,
      "sight": 2972,
      "sad": 2973,
      "uchi": 2974,
      "wt": 2975,
      "iri": 2976,
      "ative": 2977,
      "alarm": 2978,
      "scaf": 2979,
      "outside": 2980,
      "unagi": 2981,
      "ayan": 2982,
      "ayoi": 2983,
      "upii": 2984,
      "mol": 2985,
      "sual": 2986,
      "suupii": 2987,
      "headset": 2988,
      "seru": 2989,
      "casual": 2990,
      "overhead": 2991,
      "shadows": 2992,
      "ikaku": 2993,
      "coni": 2994,
      "achi": 2995,
      "bloom": 2996,
      "nao": 2997,
      "raincoat": 2998,
      "mination": 2999,
      "princ": 3000,
      "proje": 3001,
      "abomination": 3002,
      "choco": 3003,
      "sheep": 3004,
      "leash": 3005,
      "turbine": 3006,
      "boulder": 3007,
      "candlestand": 3008,
      "zeniyan": 3009,
      "different": 3010,
      "189": 3011,
      "shizui": 3012,
      "conveni": 3013,
      "scaffolding": 3014,
      "unagi189": 3015,
      "princess": 3016,
      "4d": 3017,
      "4ns": 3018,
      "cill": 3019,
      "hit": 3020,
      "nz": 3021,
      "nak": 3022,
      "qing": 3023,
      "tot": 3024,
      "tiger": 3025,
      "vio": 3026,
      "xil": 3027,
      "yon": 3028,
      "zer": 3029,
      "anna": 3030,
      "onm": 3031,
      "oncill": 3032,
      "ith": 3033,
      "doseru": 3034,
      "ilers": 3035,
      "chess": 3036,
      "imi": 3037,
      "imo": 3038,
      "bula": 3039,
      "updo": 3040,
      "stars": 3041,
      "hearn": 3042,
      "earphones": 3043,
      "de4d": 3044,
      "sideboob": 3045,
      "troncill": 3046,
      "postbox": 3047,
      "pei": 3048,
      "cream": 3049,
      "flame": 3050,
      "project": 3051,
      "lady": 3052,
      "controller": 3053,
      "dolph": 3054,
      "tatami": 3055,
      "horseback": 3056,
      "halter": 3057,
      "wheat": 3058,
      "yukari": 3059,
      "maribel": 3060,
      "crowd": 3061,
      "spoilers": 3062,
      "chromia": 3063,
      "scales": 3064,
      "randoseru": 3065,
      "heterochromia": 3066,
      "qd4ns": 3067,
      "gothic": 3068,
      "nengoro": 3069,
      "xilmo": 3070,
      "qd4nsvik": 3071,
      "012": 3072,
      ":|": 3073,
      "bs": 3074,
      "dri": 3075,
      "farm": 3076,
      "gear": 3077,
      "gla": 3078,
      "iv": 3079,
      "ket": 3080,
      "mans": 3081,
      "nor": 3082,
      "nun": 3083,
      "owl": 3084,
      "paku": 3085,
      "tim": 3086,
      "tear": 3087,
      "won": 3088,
      "rein": 3089,
      "leather": 3090,
      "stump": 3091,
      "hot": 3092,
      "ayama": 3093,
      "ayaka": 3094,
      "float": 3095,
      "suna": 3096,
      "vegeta": 3097,
      "libr": 3098,
      "life": 3099,
      "ount": 3100,
      "upload": 3101,
      "comet": 3102,
      "akira": 3103,
      "painter": 3104,
      "palette": 3105,
      "signal": 3106,
      "shino": 3107,
      "shibu": 3108,
      "texture": 3109,
      "witcher": 3110,
      "chall": 3111,
      "going": 3112,
      "yoji": 3113,
      "brief": 3114,
      "stove": 3115,
      "123": 3116,
      "tomato": 3117,
      "kamikaku": 3118,
      "goldfish": 3119,
      "porch": 3120,
      "claws": 3121,
      "saucer": 3122,
      "aerial": 3123,
      "beads": 3124,
      "lolita": 3125,
      "nzwt": 3126,
      "onmyoji": 3127,
      ":|,": 3128,
      "vegetable": 3129,
      "library": 3130,
      "briefcase": 3131,
      "kamikakushi": 3132,
      "31": 3133,
      "don": 3134,
      "dank": 3135,
      "ious": 3136,
      "pou": 3137,
      "sana": 3138,
      "splat": 3139,
      "uc": 3140,
      "vas": 3141,
      "zard": 3142,
      "arsen": 3143,
      "hag": 3144,
      "alaning": 3145,
      "bli": 3146,
      "itan": 3147,
      "chu": 3148,
      "umatsu": 3149,
      "uda": 3150,
      "adi": 3151,
      "orts": 3152,
      "plast": 3153,
      "mura": 3154,
      "derland": 3155,
      "dee": 3156,
      "russ": 3157,
      "rubb": 3158,
      "usan": 3159,
      "isen": 3160,
      "oman": 3161,
      "sports": 3162,
      "kachi": 3163,
      "que": 3164,
      "asel": 3165,
      "letter": 3166,
      "eyeshadow": 3167,
      "yue": 3168,
      "petti": 3169,
      "gui": 3170,
      "pix": 3171,
      "pick": 3172,
      "canvas": 3173,
      "nip": 3174,
      "drill": 3175,
      "shuumatsu": 3176,
      "corpse": 3177,
      "rolling": 3178,
      "straps": 3179,
      "speed": 3180,
      "rowboat": 3181,
      "pixiv2": 3182,
      "valley": 3183,
      "tsuki": 3184,
      "violin": 3185,
      "ixc": 3186,
      "lotus": 3187,
      "simple": 3188,
      "jumping": 3189,
      "pumpkin": 3190,
      "gooey": 3191,
      "police": 3192,
      "kamisato": 3193,
      "conifer": 3194,
      "mansion": 3195,
      "wonderland": 3196,
      "challenge": 3197,
      "dankalaning": 3198,
      "splatter": 3199,
      "arsenixc": 3200,
      "plastic": 3201,
      "02": 3202,
      "60": 3203,
      "afloat": 3204,
      "cami": 3205,
      "drip": 3206,
      "drum": 3207,
      "garu": 3208,
      "ht": 3209,
      "king": 3210,
      "mel": 3211,
      "mod": 3212,
      "pri": 3213,
      "spla": 3214,
      "tre": 3215,
      "ufo": 3216,
      "wara": 3217,
      "w01": 3218,
      "xia": 3219,
      "lope": 3220,
      "ors": 3221,
      "ret": 3222,
      "shell": 3223,
      "roman": 3224,
      "outgoing": 3225,
      "ryokou": 3226,
      "mika": 3227,
      "michin": 3228,
      "miusan": 3229,
      "graph": 3230,
      "beige": 3231,
      "neg": 3232,
      "nebula": 3233,
      "earring": 3234,
      "paimon": 3235,
      "backc": 3236,
      "saur": 3237,
      "clear": 3238,
      "potg": 3239,
      "piote": 3240,
      "iac": 3241,
      "kura": 3242,
      "drw01": 3243,
      "shurock": 3244,
      "slice": 3245,
      "pads": 3246,
      "corset": 3247,
      "taisa": 3248,
      "124": 3249,
      "wetland": 3250,
      "cirilla": 3251,
      "santa": 3252,
      "jour": 3253,
      "hinbackc": 3254,
      "renko": 3255,
      "acade": 3256,
      "yorha": 3257,
      "blinds": 3258,
      "destruction": 3259,
      "convenience": 3260,
      "painterly": 3261,
      "petticoat": 3262,
      "camisole": 3263,
      "garutaisa": 3264,
      "splashing": 3265,
      "michinoku": 3266,
      "miusan18": 3267,
      "piotegu": 3268,
      "04": 3269,
      "328": 3270,
      "87": 3271,
      "bana": 3272,
      "ci": 3273,
      "cet": 3274,
      "ech": 3275,
      "fir": 3276,
      "fern": 3277,
      "ging": 3278,
      "ick": 3279,
      "kara": 3280,
      "mount": 3281,
      "pel": 3282,
      "panda": 3283,
      "tent": 3284,
      "yin": 3285,
      "zod": 3286,
      "incom": 3287,
      "alia": 3288,
      "sciss": 3289,
      "robot": 3290,
      "clover": 3291,
      "eda": 3292,
      "cooking": 3293,
      "tapir": 3294,
      "ident": 3295,
      "weed": 3296,
      "okayama": 3297,
      "thick": 3298,
      "rie": 3299,
      "semi": 3300,
      "secon": 3301,
      "ryu": 3302,
      "miji": 3303,
      "need": 3304,
      "starlight": 3305,
      "momiji": 3306,
      "pass": 3307,
      "tern": 3308,
      "ofuda": 3309,
      "archive": 3310,
      "uko": 3311,
      "yai": 3312,
      "koma": 3313,
      "kojiro": 3314,
      "canyon": 3315,
      "goat": 3316,
      "creation": 3317,
      "umei": 3318,
      "gift": 3319,
      "office": 3320,
      "stain": 3321,
      "kensight": 3322,
      "kano": 3323,
      "tenshi": 3324,
      "cular": 3325,
      "youmu": 3326,
      "autom": 3327,
      "fangs": 3328,
      "hankachi": 3329,
      "incense": 3330,
      "tricorne": 3331,
      "campfire": 3332,
      "makeup": 3333,
      "pajaman": 3334,
      "spotlight": 3335,
      "konpaku": 3336,
      "wreckage": 3337,
      "dolphin": 3338,
      "nipples": 3339,
      "journey": 3340,
      "academy": 3341,
      "incoming": 3342,
      "scissors": 3343,
      "okayama012": 3344,
      "second": 3345,
      "kensight328": 3346,
      "199": 3347,
      "asa": 3348,
      "bir": 3349,
      "bit": 3350,
      "bata": 3351,
      "dd": 3352,
      "dant": 3353,
      "deng": 3354,
      "fight": 3355,
      "gaz": 3356,
      "ivy": 3357,
      "jr": 3358,
      "jim": 3359,
      "kus": 3360,
      "oar": 3361,
      "sni": 3362,
      "yang": 3363,
      "inge": 3364,
      "onion": 3365,
      "coca": 3366,
      "tag": 3367,
      "rika": 3368,
      "miyoshi": 3369,
      "grav": 3370,
      "gray": 3371,
      "deriv": 3372,
      "maion": 3373,
      "frozen": 3374,
      "bashir": 3375,
      "ructure": 3376,
      "meat": 3377,
      "greenhouse": 3378,
      "fringe": 3379,
      "serious": 3380,
      "cabb": 3381,
      "kaze": 3382,
      "kimetsu": 3383,
      "tablet": 3384,
      "azine": 3385,
      "aquarium": 3386,
      "stocking": 3387,
      "magazine": 3388,
      "sonny": 3389,
      "ppeli": 3390,
      "wariza": 3391,
      "zeppeli": 3392,
      "myt": 3393,
      "mario": 3394,
      "bulb": 3395,
      "burner": 3396,
      "mailbox": 3397,
      "gotou": 3398,
      "devil": 3399,
      "binocular": 3400,
      "ayanami": 3401,
      "yaiba": 3402,
      "automata": 3403,
      "derivative": 3404,
      "maionese": 3405,
      "binoculars": 3406,
      "46": 3407,
      "aet": 3408,
      "cia": 3409,
      "dir": 3410,
      "dual": 3411,
      "fam": 3412,
      "gam": 3413,
      "gas": 3414,
      "ghi": 3415,
      "gami": 3416,
      "hina": 3417,
      "kill": 3418,
      "mine": 3419,
      "nik": 3420,
      "naru": 3421,
      "sor": 3422,
      "sack": 3423,
      "tire": 3424,
      "time": 3425,
      "ug": 3426,
      "vinc": 3427,
      "wari": 3428,
      "ye": 3429,
      "yato": 3430,
      "yoko": 3431,
      "zou": 3432,
      "enve": 3433,
      "reed": 3434,
      "leth": 3435,
      "iga": 3436,
      "alic": 3437,
      "taka": 3438,
      "idated": 3439,
      "ung": 3440,
      "apidated": 3441,
      "okun": 3442,
      "ela": 3443,
      "toaru": 3444,
      "bean": 3445,
      "hatching": 3446,
      "izo": 3447,
      "sabi": 3448,
      "shogun": 3449,
      "factor": 3450,
      "shiki": 3451,
      "bodystocking": 3452,
      "create": 3453,
      "sumurai": 3454,
      "procreate": 3455,
      "midjourney": 3456,
      "itoyato": 3457,
      "speech": 3458,
      "covering": 3459,
      "taking": 3460,
      "hetalia": 3461,
      "kagam": 3462,
      "tentacle": 3463,
      "budda": 3464,
      "couple": 3465,
      "limit": 3466,
      "damaged": 3467,
      "dilapidated": 3468,
      "projectile": 3469,
      "shibuya": 3470,
      "rubber": 3471,
      "pixiv2124": 3472,
      "zodiac": 3473,
      "aether": 3474,
      "ghibli": 3475,
      "envelope": 3476,
      "factory": 3477,
      "itoyatomo": 3478,
      "047": 3479,
      "100": 3480,
      "29": 3481,
      "428": 3482,
      "97": 3483,
      "ae": 3484,
      "aven": 3485,
      "bara": 3486,
      "bank": 3487,
      "coun": 3488,
      "dangle": 3489,
      "feng": 3490,
      "gat": 3491,
      "hana": 3492,
      "ico": 3493,
      "kant": 3494,
      "mop": 3495,
      "och": 3496,
      "pha": 3497,
      "pige": 3498,
      "rim": 3499,
      "sist": 3500,
      "tet": 3501,
      "tlan": 3502,
      "vent": 3503,
      "valk": 3504,
      "xy": 3505,
      "shed": 3506,
      "shad": 3507,
      "igible": 3508,
      "raven": 3509,
      "boss": 3510,
      "aph": 3511,
      "soap": 3512,
      "okayu": 3513,
      "ely": 3514,
      "ayer": 3515,
      "amaru": 3516,
      "holster": 3517,
      "pose": 3518,
      "toi": 3519,
      "grea": 3520,
      "pair": 3521,
      "tecu": 3522,
      "birdcage": 3523,
      "fubuki": 3524,
      "servator": 3525,
      "caust": 3526,
      "kawa": 3527,
      "kaede": 3528,
      "perfe": 3529,
      "feel": 3530,
      "concre": 3531,
      "texas": 3532,
      "kochi": 3533,
      "snowman": 3534,
      "berry": 3535,
      "riverbank": 3536,
      "underground": 3537,
      "ami047": 3538,
      "gyro": 3539,
      "flask": 3540,
      "isher": 3541,
      "pendant": 3542,
      "explo": 3543,
      "subway": 3544,
      "juice": 3545,
      "midair": 3546,
      "smaller": 3547,
      "tatey": 3548,
      "wristband": 3549,
      "kyou": 3550,
      "2020": 3551,
      "999": 3552,
      "dango": 3553,
      "mictlan": 3554,
      "hinami047": 3555,
      "moriya": 3556,
      "qiu": 3557,
      "watson": 3558,
      "hourglass": 3559,
      "innertube": 3560,
      "nurika": 3561,
      "tamaki": 3562,
      "whiskers": 3563,
      "dining": 3564,
      "molten": 3565,
      "kettle": 3566,
      "dripping": 3567,
      "htli": 3568,
      "dengaku": 3569,
      "sniper": 3570,
      "dirigible": 3571,
      "alicization": 3572,
      "kagamine": 3573,
      "counter": 3574,
      "pigeon": 3575,
      "sisters": 3576,
      "valky": 3577,
      "tecuhtli": 3578,
      "servatory": 3579,
      "caustics": 3580,
      "perfect": 3581,
      "concrete": 3582,
      "nurikabe": 3583,
      "17": 3584,
      "416": 3585,
      "ben": 3586,
      "cg": 3587,
      "cth": 3588,
      "gx": 3589,
      "hk": 3590,
      "km": 3591,
      "kum": 3592,
      "oy": 3593,
      "puni": 3594,
      "sin": 3595,
      "switch": 3596,
      "tes": 3597,
      "yas": 3598,
      "anti": 3599,
      "reins": 3600,
      "haori": 3601,
      "taizo": 3602,
      "eyard": 3603,
      "elia": 3604,
      "amon": 3605,
      "flops": 3606,
      "brooch": 3607,
      "wink": 3608,
      "uran": 3609,
      "mis": 3610,
      "mikan": 3611,
      "miqo": 3612,
      "mut": 3613,
      "beard": 3614,
      "bby": 3615,
      "mog": 3616,
      "ute": 3617,
      "glove": 3618,
      "highway": 3619,
      "isou": 3620,
      "trench": 3621,
      "spher": 3622,
      "ikatsu": 3623,
      "conne": 3624,
      "console": 3625,
      "crossover": 3626,
      "byleth": 3627,
      "market": 3628,
      "kusa": 3629,
      "topknot": 3630,
      "huge": 3631,
      "prin": 3632,
      "anklet": 3633,
      "drills": 3634,
      "chocol": 3635,
      "turret": 3636,
      "song": 3637,
      "rowed": 3638,
      "spacecraft": 3639,
      "antennae": 3640,
      "burning": 3641,
      "faucet": 3642,
      "ulhu": 3643,
      "nontraditional": 3644,
      "blindfold": 3645,
      "yakumo": 3646,
      "locker": 3647,
      "kazuha": 3648,
      "chocoshi": 3649,
      "graveyard": 3650,
      "family": 3651,
      "4282": 3652,
      "kantoku": 3653,
      "shaded": 3654,
      "toilet": 3655,
      "greaves": 3656,
      "tateyuki": 3657,
      "valkyrie": 3658,
      "cthulhu": 3659,
      "taizo4282": 3660,
      "chocolate": 3661,
      "'-": 3662,
      "21": 3663,
      "25": 3664,
      "26": 3665,
      "36": 3666,
      "73": 3667,
      "cater": 3668,
      "eight": 3669,
      "ever": 3670,
      "easel": 3671,
      "fou": 3672,
      "free": 3673,
      "fut": 3674,
      "father": 3675,
      "isekai": 3676,
      "kay": 3677,
      "kong": 3678,
      "nn": 3679,
      "oct": 3680,
      "pti": 3681,
      "rita": 3682,
      "sian": 3683,
      "sume": 3684,
      "tight": 3685,
      "wako": 3686,
      "wboss": 3687,
      "xc": 3688,
      "irou": 3689,
      "erom": 3690,
      "enix": 3691,
      "arc": 3692,
      "stay": 3693,
      "structure": 3694,
      "alt": 3695,
      "doh": 3696,
      "roy": 3697,
      "roid": 3698,
      "outa": 3699,
      "udai": 3700,
      "amelia": 3701,
      "noba": 3702,
      "odama": 3703,
      "topless": 3704,
      "akari": 3705,
      "ffs": 3706,
      "heaven": 3707,
      "earth": 3708,
      "uten": 3709,
      "version": 3710,
      "izumi": 3711,
      "winged": 3712,
      "indie": 3713,
      "jean": 3714,
      "kaito": 3715,
      "phant": 3716,
      "quill": 3717,
      "contem": 3718,
      "peach": 3719,
      "kimi": 3720,
      "textless": 3721,
      "fireplace": 3722,
      "kemu": 3723,
      "slayer": 3724,
      "tenki": 3725,
      "cord": 3726,
      "yuusui": 3727,
      "clipboard": 3728,
      "turn": 3729,
      "wristwatch": 3730,
      "kamin": 3731,
      "despair": 3732,
      "takkyuu": 3733,
      "super": 3734,
      "inubashir": 3735,
      "wards": 3736,
      "porary": 3737,
      "sweatdrop": 3738,
      "camping": 3739,
      "daisy": 3740,
      "chicken": 3741,
      "greatsword": 3742,
      "dream": 3743,
      "bloomers": 3744,
      "driving": 3745,
      "sanae": 3746,
      "pickup": 3747,
      "pelvic": 3748,
      "needle": 3749,
      "stained": 3750,
      "kochiya": 3751,
      "punishing": 3752,
      "caterpillar": 3753,
      "eromkk": 3754,
      "contemporary": 3755,
      "takkyuubin": 3756,
      "inubashiri": 3757,
      "020": 3758,
      "43": 3759,
      "aoi": 3760,
      "dun": 3761,
      "hito": 3762,
      "kot": 3763,
      "kaf": 3764,
      "kake": 3765,
      "kami": 3766,
      "knit": 3767,
      "ldoh": 3768,
      "mast": 3769,
      "mitsu": 3770,
      "nana": 3771,
      "pig": 3772,
      "pra": 3773,
      "psy": 3774,
      "pull": 3775,
      "sama": 3776,
      "tana": 3777,
      "vam": 3778,
      "wiz": 3779,
      "xin": 3780,
      "zh": 3781,
      "rem": 3782,
      "ski": 3783,
      "onsen": 3784,
      "atel": 3785,
      "hairpin": 3786,
      "stro": 3787,
      "itation": 3788,
      "doorway": 3789,
      "coon": 3790,
      "tape": 3791,
      "tactile": 3792,
      "idai": 3793,
      "uno": 3794,
      "uneven": 3795,
      "imp": 3796,
      "buoy": 3797,
      "rish": 3798,
      "ideo": 3799,
      "pochi": 3800,
      "aghet": 3801,
      "suno": 3802,
      "brother": 3803,
      "combat": 3804,
      "opus": 3805,
      "bei": 3806,
      "beer": 3807,
      "max": 3808,
      "paving": 3809,
      "engrish": 3810,
      "headgear": 3811,
      "indian": 3812,
      "former": 3813,
      "spaghet": 3814,
      "wave": 3815,
      "wasabi": 3816,
      "qui": 3817,
      "contra": 3818,
      "diamon": 3819,
      "block": 3820,
      "peaked": 3821,
      "aneko": 3822,
      "kiss": 3823,
      "bunny": 3824,
      "gabir": 3825,
      "iii": 3826,
      "sparkler": 3827,
      "luo": 3828,
      "agawa": 3829,
      "sister": 3830,
      "enoshima": 3831,
      "oromo": 3832,
      "construction": 3833,
      "hedron": 3834,
      "seaweed": 3835,
      "couldoh": 3836,
      "hayatel": 3837,
      "hammer": 3838,
      "qosic": 3839,
      "storm": 3840,
      "fication": 3841,
      "uchiwa": 3842,
      "totoro": 3843,
      "halterneck": 3844,
      "teardrop": 3845,
      "hagoromo": 3846,
      "pixel": 3847,
      "ryuu": 3848,
      "mutsumi": 3849,
      "eighth": 3850,
      "kaminaga": 3851,
      "wizard": 3852,
      "spaghetti": 3853,
      "diamond": 3854,
      "gabiran": 3855,
      "hayateluc": 3856,
      "03": 3857,
      "asuka": 3858,
      "bing": 3859,
      "big": 3860,
      "clu": 3861,
      "fin": 3862,
      "fig": 3863,
      "gou": 3864,
      "gink": 3865,
      "ise": 3866,
      "i199": 3867,
      "kumo": 3868,
      "ose": 3869,
      "qpou": 3870,
      "ses": 3871,
      "sarashi": 3872,
      "tro": 3873,
      "ugh": 3874,
      "via": 3875,
      "ythe": 3876,
      "yuru": 3877,
      "zhu": 3878,
      "regu": 3879,
      "arou": 3880,
      "shack": 3881,
      "shaker": 3882,
      "onoke": 3883,
      "atched": 3884,
      "scythe": 3885,
      "skylight": 3886,
      "hosp": 3887,
      "ida": 3888,
      "sock": 3889,
      "tiara": 3890,
      "ria": 3891,
      "shortening": 3892,
      "pov": 3893,
      "ago": 3894,
      "ctus": 3895,
      "veget": 3896,
      "toena": 3897,
      "ryky": 3898,
      "ryouta": 3899,
      "grave": 3900,
      "majutsu": 3901,
      "suta": 3902,
      "baggy": 3903,
      "sitaki": 3904,
      "lab": 3905,
      "neckwear": 3906,
      "cau": 3907,
      "cactus": 3908,
      "kaisen": 3909,
      "overpass": 3910,
      "braces": 3911,
      "distri": 3912,
      "saisho": 3913,
      "eyeball": 3914,
      "poti199": 3915,
      "nasitaki": 3916,
      "mononoke": 3917,
      "bolt": 3918,
      "analog": 3919,
      "atoon": 3920,
      "foreshortening": 3921,
      "sketch": 3922,
      "rune": 3923,
      "jujutsu": 3924,
      "sonic": 3925,
      "sided": 3926,
      "gameplay": 3927,
      "chigo": 3928,
      "tabard": 3929,
      "oooo": 3930,
      "mechanics": 3931,
      "microwave": 3932,
      "mismatched": 3933,
      "bathroom": 3934,
      "fujiwara": 3935,
      "limb": 3936,
      "karan": 3937,
      "bottom": 3938,
      "little": 3939,
      "split": 3940,
      "splatoon": 3941,
      "kazami": 3942,
      "cabbie": 3943,
      "gotouryouta": 3944,
      "elaina": 3945,
      "beanie": 3946,
      "okayuu": 3947,
      "hk416": 3948,
      "four": 3949,
      "tanabata": 3950,
      "vambraces": 3951,
      "qpoujr": 3952,
      "yurucamp": 3953,
      "hospital": 3954,
      "vegetation": 3955,
      "rykyart": 3956,
      "district": 3957,
      "poti1990": 3958,
      "4boys": 3959,
      "55": 3960,
      "58": 3961,
      "c4": 3962,
      "duff": 3963,
      "gak": 3964,
      "hm": 3965,
      "isa": 3966,
      "ification": 3967,
      "ichigo": 3968,
      "kuni": 3969,
      "kka": 3970,
      "kana": 3971,
      "lance": 3972,
      "mokun": 3973,
      "o81": 3974,
      "rkm": 3975,
      "sar": 3976,
      "ush": 3977,
      "uba": 3978,
      "uisher": 3979,
      "wed": 3980,
      "wak": 3981,
      "locom": 3982,
      "an2": 3983,
      "ani": 3984,
      "ingray": 3985,
      "remake": 3986,
      "shape": 3987,
      "skadi": 3988,
      "esa": 3989,
      "stingray": 3990,
      "blic": 3991,
      "dode": 3992,
      "chis": 3993,
      "otive": 3994,
      "umpet": 3995,
      "cook": 3996,
      "tachi": 3997,
      "taira": 3998,
      "origini": 3999,
      "apted": 4000,
      "tia": 4001,
      "elight": 4002,
      "thum": 4003,
      "adapted": 4004,
      "cted": 4005,
      "ryun": 4006,
      "comic": 4007,
      "akitsu": 4008,
      "mao": 4009,
      "oneko": 4010,
      "suki": 4011,
      "sugi": 4012,
      "tinguisher": 4013,
      "gensuke": 4014,
      "sailing": 4015,
      "handrail": 4016,
      "handgun": 4017,
      "geki": 4018,
      "trumpet": 4019,
      "omori": 4020,
      "spy": 4021,
      "cao": 4022,
      "cahedron": 4023,
      "kaitan": 4024,
      "phono": 4025,
      "assha": 4026,
      "naz": 4027,
      "carrot": 4028,
      "jiu": 4029,
      "cano": 4030,
      "minato": 4031,
      "manatsu": 4032,
      "sumassha": 4033,
      "extinguisher": 4034,
      "sandwi": 4035,
      "drone": 4036,
      "eller": 4037,
      "missing": 4038,
      "joe": 4039,
      "curly": 4040,
      "bald": 4041,
      "shui": 4042,
      "slime": 4043,
      "surf": 4044,
      "gging": 4045,
      "yuuga": 4046,
      "submachine": 4047,
      "assin": 4048,
      "assassin": 4049,
      "okubo": 4050,
      "public": 4051,
      "emp": 4052,
      "picnic": 4053,
      "panzer": 4054,
      "musical": 4055,
      "hanfu": 4056,
      "elbows": 4057,
      "german": 4058,
      "margat": 4059,
      "rinne": 4060,
      "hinana": 4061,
      "zipper": 4062,
      "hachio81": 4063,
      "hedge": 4064,
      "moribud": 4065,
      "ika05": 4066,
      "gemstone": 4067,
      "personification": 4068,
      "sakiika05": 4069,
      "bathtub": 4070,
      "mitten": 4071,
      "dinosaur": 4072,
      "spirit": 4073,
      "saddle": 4074,
      "lifebuoy": 4075,
      "kurasuta": 4076,
      "zouri": 4077,
      "explosion": 4078,
      "stroke": 4079,
      "wasabi60": 4080,
      "figure": 4081,
      "karanagi": 4082,
      "duffel": 4083,
      "gakuran": 4084,
      "mokunoki": 4085,
      "rkmlady": 4086,
      "locomotive": 4087,
      "dodecahedron": 4088,
      "originium": 4089,
      "phonograph": 4090,
      "sandwich": 4091,
      "margatroid": 4092,
      "moribuden": 4093,
      "sakiika0513": 4094,
      "07": 4095,
      "0n": 4096,
      "48": 4097,
      "4others": 4098,
      "545": 4099,
      "78": 4100,
      "ashi": 4101,
      "bers": 4102,
      "eup": 4103,
      "ebine": 4104,
      "gather": 4105,
      "jime": 4106,
      "jito": 4107,
      "kite": 4108,
      "klee": 4109,
      "krita": 4110,
      "lig": 4111,
      "m4": 4112,
      "maki": 4113,
      "maru": 4114,
      "saku": 4115,
      "tal": 4116,
      "tress": 4117,
      "talk": 4118,
      "v3": 4119,
      "wd": 4120,
      "waga": 4121,
      "ximu": 4122,
      "zora": 4123,
      "shon": 4124,
      "ala": 4125,
      "scuba": 4126,
      "hoshim": 4127,
      "hoshino": 4128,
      "coin": 4129,
      "aper": 4130,
      "sode": 4131,
      "immer": 4132,
      "imitation": 4133,
      "ok1": 4134,
      "anga": 4135,
      "polar": 4136,
      "liu": 4137,
      "tool": 4138,
      "toshio": 4139,
      "akes": 4140,
      "akyu": 4141,
      "miao": 4142,
      "mash": 4143,
      "machi": 4144,
      "mos": 4145,
      "momo": 4146,
      "ola": 4147,
      "enger": 4148,
      "ribbed": 4149,
      "laun": 4150,
      "signpost": 4151,
      "trig": 4152,
      "shinto": 4153,
      "coattails": 4154,
      "fuku": 4155,
      "washing": 4156,
      "shading": 4157,
      "dise": 4158,
      "blowing": 4159,
      "venti": 4160,
      "gul": 4161,
      "guang": 4162,
      "mona": 4163,
      "monokubo": 4164,
      "snowfl": 4165,
      "tablecloth": 4166,
      "boration": 4167,
      "iai": 4168,
      "pyra": 4169,
      "canop": 4170,
      "cannon": 4171,
      "hugging": 4172,
      "collaboration": 4173,
      "ame999": 4174,
      "stract": 4175,
      "tokiki": 4176,
      "winters": 4177,
      "prost": 4178,
      "joh": 4179,
      "gae": 4180,
      "duel": 4181,
      "duct": 4182,
      "inika": 4183,
      "zuwari": 4184,
      "tomok1": 4185,
      "youkai": 4186,
      "elezen": 4187,
      "elephant": 4188,
      "maker": 4189,
      "makoto": 4190,
      "sakuna": 4191,
      "imasa": 4192,
      "clim": 4193,
      "clair": 4194,
      "ekaki": 4195,
      "palace": 4196,
      "geralt": 4197,
      "grandfather": 4198,
      "rinneko": 4199,
      "garage": 4200,
      "abstract": 4201,
      "destroy": 4202,
      "yaoximu": 4203,
      "suzuk": 4204,
      "choujuu": 4205,
      "center": 4206,
      "number": 4207,
      "volcano": 4208,
      "hitodama": 4209,
      "russia": 4210,
      "mikado": 4211,
      "vinci": 4212,
      "yokozuwari": 4213,
      "kaedehara": 4214,
      "octopus": 4215,
      "utensil": 4216,
      "sketchbook": 4217,
      "ichigoame": 4218,
      "an211": 4219,
      "shuiyaoximu": 4220,
      "surfboard": 4221,
      "yuugai": 4222,
      "mittens": 4223,
      "gathering": 4224,
      "wagashi": 4225,
      "shonan211": 4226,
      "immersed": 4227,
      "akyuun": 4228,
      "shuiyaoximushi": 4229,
      "1nu": 4230,
      "220": 4231,
      "98": 4232,
      "ale": 4233,
      "bak": 4234,
      "biao": 4235,
      "cs": 4236,
      "cru": 4237,
      "c12": 4238,
      "ccoon": 4239,
      "dat": 4240,
      "ea": 4241,
      "ebo": 4242,
      "fxc": 4243,
      "harm": 4244,
      "iel": 4245,
      "iiz": 4246,
      "jat": 4247,
      "jie": 4248,
      "jfxc": 4249,
      "luna": 4250,
      "mc": 4251,
      "mess": 4252,
      "mitsuki": 4253,
      "naked": 4254,
      "ness": 4255,
      "ome": 4256,
      "rw": 4257,
      "rance": 4258,
      "r97": 4259,
      "site": 4260,
      "sang": 4261,
      "v7": 4262,
      "video": 4263,
      "yoman": 4264,
      "zy": 4265,
      "zic": 4266,
      "inami": 4267,
      "inju": 4268,
      "eric": 4269,
      "regi": 4270,
      "reward": 4271,
      "leaki": 4272,
      "hao": 4273,
      "oukan": 4274,
      "ates": 4275,
      "stage": 4276,
      "stell": 4277,
      "allow": 4278,
      "itou": 4279,
      "dom": 4280,
      "hos": 4281,
      "hoco": 4282,
      "howl": 4283,
      "raccoon": 4284,
      "bobby": 4285,
      "chito": 4286,
      "eter": 4287,
      "cold": 4288,
      "origami": 4289,
      "unk": 4290,
      "unaga": 4291,
      "unamaru": 4292,
      "elle": 4293,
      "three": 4294,
      "rivia": 4295,
      "entrance": 4296,
      "seki": 4297,
      "posuka": 4298,
      "cevio": 4299,
      "akimasa": 4300,
      "ieval": 4301,
      "grab": 4302,
      "height": 4303,
      "armchair": 4304,
      "mochi": 4305,
      "dew": 4306,
      "demizu": 4307,
      "paid": 4308,
      "suk": 4309,
      "sus": 4310,
      "susan": 4311,
      "medieval": 4312,
      "hero": 4313,
      "sasaki": 4314,
      "houette": 4315,
      "highleg": 4316,
      "meme": 4317,
      "fabri": 4318,
      "fashion": 4319,
      "fuzic": 4320,
      "arts": 4321,
      "brand": 4322,
      "spice": 4323,
      "cash": 4324,
      "onya": 4325,
      "iku": 4326,
      "conservatory": 4327,
      "fishnet": 4328,
      "diva": 4329,
      "yuan": 4330,
      "scarfy": 4331,
      "kosian": 4332,
      "chip": 4333,
      "good": 4334,
      "creed": 4335,
      "singing": 4336,
      "anashi": 4337,
      "tokunaga": 4338,
      "steria": 4339,
      "gyoukan": 4340,
      "slr97": 4341,
      "juudai": 4342,
      "midori": 4343,
      "akabe": 4344,
      "akasa": 4345,
      "commissioner": 4346,
      "isted": 4347,
      "atching": 4348,
      "2022": 4349,
      "silhouette": 4350,
      "embers": 4351,
      "hanger": 4352,
      "guardian": 4353,
      "dancing": 4354,
      "000": 4355,
      "0019": 4356,
      "warning": 4357,
      "takanashi": 4358,
      "axleaki": 4359,
      "triangle": 4360,
      "wisteria": 4361,
      "zzz": 4362,
      "persona": 4363,
      "bonsai": 4364,
      "megumu": 4365,
      "nin0019": 4366,
      "salt": 4367,
      "kitsune": 4368,
      "wenbiao": 4369,
      "violet": 4370,
      "chessboard": 4371,
      "fighting": 4372,
      "gazing": 4373,
      "wedding": 4374,
      "cookie": 4375,
      "sugi87": 4376,
      "hinanawi": 4377,
      "snowflakes": 4378,
      "claire": 4379,
      "1nupool": 4380,
      "bakery": 4381,
      "iizunamaru": 4382,
      "yomanika": 4383,
      "injury": 4384,
      "register": 4385,
      "stellated": 4386,
      "fabric": 4387,
      "fuzichoco": 4388,
      "/,": 4389,
      "228": 4390,
      "66": 4391,
      "92": 4392,
      "957": 4393,
      "aff": 4394,
      "asuna": 4395,
      "bent": 4396,
      "cchi": 4397,
      "ccer": 4398,
      "dor": 4399,
      "did": 4400,
      "dora": 4401,
      "dump": 4402,
      "fum": 4403,
      "frying": 4404,
      "gt": 4405,
      "gle": 4406,
      "gol": 4407,
      "hl": 4408,
      "higu": 4409,
      "ium": 4410,
      "jiz": 4411,
      "juku": 4412,
      "jirou": 4413,
      "kino": 4414,
      "koku": 4415,
      "koto": 4416,
      "lun": 4417,
      "leng": 4418,
      "langle": 4419,
      "mr": 4420,
      "mige": 4421,
      "mokou": 4422,
      "oc": 4423,
      "oso": 4424,
      "rh": 4425,
      "rone": 4426,
      "sant": 4427,
      "tall": 4428,
      "uct": 4429,
      "ula": 4430,
      "uette": 4431,
      "var": 4432,
      "wk": 4433,
      "wes": 4434,
      "x3": 4435,
      "yg": 4436,
      "yume": 4437,
      "zato": 4438,
      "iner": 4439,
      "eral": 4440,
      "eroid": 4441,
      "oru": 4442,
      "retain": 4443,
      "remot": 4444,
      "leen": 4445,
      "shita": 4446,
      "shallow": 4447,
      "hack": 4448,
      "hashi": 4449,
      "hajim": 4450,
      "ouche": 4451,
      "alay": 4452,
      "alche": 4453,
      "doctor": 4454,
      "roma": 4455,
      "ilin": 4456,
      "close": 4457,
      "boll": 4458,
      "bobble": 4459,
      "ssy": 4460,
      "chima": 4461,
      "cock": 4462,
      "weather": 4463,
      "soccer": 4464,
      "ammet": 4465,
      "amouche": 4466,
      "bull": 4467,
      "ribs": 4468,
      "rikusa": 4469,
      "entry": 4470,
      "sewer": 4471,
      "seikatsu": 4472,
      "polo": 4473,
      "iceroid": 4474,
      "lli": 4475,
      "lia": 4476,
      "lifi": 4477,
      "toe": 4478,
      "towards": 4479,
      "ryza": 4480,
      "akai": 4481,
      "muffs": 4482,
      "muc12": 4483,
      "forame": 4484,
      "forced": 4485,
      "forgot": 4486,
      "nek": 4487,
      "stargazing": 4488,
      "mau": 4489,
      "mom": 4490,
      "earbud": 4491,
      "earmuffs": 4492,
      "paind": 4493,
      "glory": 4494,
      "suwako": 4495,
      "fiammet": 4496,
      "baguette": 4497,
      "after": 4498,
      "sachi": 4499,
      "grate": 4500,
      "usiai": 4501,
      "themed": 4502,
      "houses": 4503,
      "breasted": 4504,
      "trident": 4505,
      "shinjuku": 4506,
      "furaha": 4507,
      "artforame": 4508,
      "shiba": 4509,
      "shijiu": 4510,
      "spray": 4511,
      "sparrow": 4512,
      "spaper": 4513,
      "ornaments": 4514,
      "asaki": 4515,
      "bracer": 4516,
      "ikaka": 4517,
      "scaramouche": 4518,
      "potato": 4519,
      "ringed": 4520,
      "yuz": 4521,
      "yuumei": 4522,
      "yuhack": 4523,
      "yawning": 4524,
      "money": 4525,
      "jiang": 4526,
      "goon": 4527,
      "gown": 4528,
      "underboob": 4529,
      "kiara": 4530,
      "streetcar": 4531,
      "flam": 4532,
      "plain": 4533,
      "amado": 4534,
      "exusiai": 4535,
      "bishoujo": 4536,
      "voiceroid": 4537,
      "souryuu": 4538,
      "flash": 4539,
      "transformer": 4540,
      "eraser": 4541,
      "notes": 4542,
      "honium": 4543,
      "control": 4544,
      "zuri": 4545,
      "breathing": 4546,
      "square": 4547,
      "makima": 4548,
      "danner": 4549,
      "ump45": 4550,
      "glitch": 4551,
      "strawberry": 4552,
      "sources": 4553,
      "mour": 4554,
      "truss": 4555,
      "wrench": 4556,
      "404": 4557,
      "tripod": 4558,
      "newspaper": 4559,
      "ultra": 4560,
      "claw": 4561,
      "fried": 4562,
      "hikari": 4563,
      "eyeliner": 4564,
      "bonfire": 4565,
      "shizu": 4566,
      "megaph": 4567,
      "viking": 4568,
      "flipped": 4569,
      "dinoartforame": 4570,
      "aaa": 4571,
      "pirate": 4572,
      "pajamas": 4573,
      "nitori": 4574,
      "osaka": 4575,
      "folded": 4576,
      "spiral": 4577,
      "eileen": 4578,
      "reinforced": 4579,
      "komainu": 4580,
      "kusakabe": 4581,
      "mythos": 4582,
      "killing": 4583,
      "naruto": 4584,
      "kawashiro": 4585,
      "sphere": 4586,
      "evergarden": 4587,
      "kemurikusa": 4588,
      "toenails": 4589,
      "tachibana": 4590,
      "nazgul": 4591,
      "euphonium": 4592,
      "jitome": 4593,
      "ligne": 4594,
      "trigger": 4595,
      "pyramid": 4596,
      "canopy": 4597,
      "climbing": 4598,
      "harmony": 4599,
      "rwby": 4600,
      "didikaka": 4601,
      "langley": 4602,
      "western": 4603,
      "retaining": 4604,
      "remote": 4605,
      "hajimeru": 4606,
      "alayna": 4607,
      "romaji": 4608,
      "bollard": 4609,
      "muc12b": 4610,
      "forgotten": 4611,
      "earbuds": 4612,
      "paindude": 4613,
      "fiammetta": 4614,
      "furahata": 4615,
      "megaphone": 4616,
      "!),": 4617,
      "34": 4618,
      "613": 4619,
      "90": 4620,
      "aver": 4621,
      "bay": 4622,
      "cd": 4623,
      "egy": 4624,
      "fed": 4625,
      "held": 4626,
      "hira": 4627,
      "ib": 4628,
      "ien": 4629,
      "ile": 4630,
      "iya": 4631,
      "job": 4632,
      "kt": 4633,
      "kok": 4634,
      "kak": 4635,
      "kono": 4636,
      "kume": 4637,
      "kgt": 4638,
      "kamado": 4639,
      "mt": 4640,
      "may": 4641,
      "mad": 4642,
      "mber": 4643,
      "nade": 4644,
      "ox": 4645,
      "oekaki": 4646,
      "peng": 4647,
      "pter": 4648,
      "pest": 4649,
      "pray": 4650,
      "rz": 4651,
      "sey": 4652,
      "sins": 4653,
      "test": 4654,
      "ugi": 4655,
      "von": 4656,
      "wagon": 4657,
      "xian": 4658,
      "yun": 4659,
      "infe": 4660,
      "iru": 4661,
      "iren": 4662,
      "lolli": 4663,
      "orch": 4664,
      "anata": 4665,
      "anbei": 4666,
      "record": 4667,
      "leur": 4668,
      "leveil": 4669,
      "araku": 4670,
      "habit": 4671,
      "hauchiwa": 4672,
      "igen": 4673,
      "ough": 4674,
      "ska": 4675,
      "skates": 4676,
      "onig": 4677,
      "ald": 4678,
      "alpa": 4679,
      "scare": 4680,
      "dodo": 4681,
      "roo": 4682,
      "hog": 4683,
      "hoshi": 4684,
      "chy": 4685,
      "etti": 4686,
      "code": 4687,
      "unit": 4688,
      "unic": 4689,
      "untucked": 4690,
      "image": 4691,
      "okuma": 4692,
      "elding": 4693,
      "holy": 4694,
      "thers": 4695,
      "throne": 4696,
      "rich": 4697,
      "floppy": 4698,
      "seal": 4699,
      "agam": 4700,
      "brow": 4701,
      "brothers": 4702,
      "odachi": 4703,
      "miki": 4704,
      "beast": 4705,
      "armill": 4706,
      "inesis": 4707,
      "hataraku": 4708,
      "pai": 4709,
      "utter": 4710,
      "mountaintop": 4711,
      "afell": 4712,
      "headpiece": 4713,
      "handheld": 4714,
      "opening": 4715,
      "themis": 4716,
      "lain": 4717,
      "railway": 4718,
      "meiko": 4719,
      "inkai": 4720,
      "fare": 4721,
      "shining": 4722,
      "furi": 4723,
      "artstation": 4724,
      "omin": 4725,
      "fran": 4726,
      "kasl": 4727,
      "kajat": 4728,
      "phan": 4729,
      "pera": 4730,
      "cleaver": 4731,
      "obanbei": 4732,
      "fecture": 4733,
      "dist": 4734,
      "oria": 4735,
      "yuzuki": 4736,
      "phoenix": 4737,
      "hisa": 4738,
      "hips": 4739,
      "monokuma": 4740,
      "dragonfly": 4741,
      "cutting": 4742,
      "prote": 4743,
      "stretching": 4744,
      "kanza": 4745,
      "kei": 4746,
      "keqing": 4747,
      "missile": 4748,
      "atsuya": 4749,
      "lds": 4750,
      "larger": 4751,
      "tulip": 4752,
      "angular": 4753,
      "rouzato": 4754,
      "giantess": 4755,
      "12957": 4756,
      "pastel": 4757,
      "2021": 4758,
      "pussy": 4759,
      "step": 4760,
      "pixiv12957": 4761,
      "poncho": 4762,
      "katou": 4763,
      "sticky": 4764,
      "ump9": 4765,
      "magical": 4766,
      "takodachi": 4767,
      "hyur": 4768,
      "wheelchair": 4769,
      "wielding": 4770,
      "cyclecircle": 4771,
      "xiaohei": 4772,
      "faulds": 4773,
      "electricity": 4774,
      "daruma": 4775,
      "hydrant": 4776,
      "nagara": 4777,
      "kunn": 4778,
      "yakkunn": 4779,
      "kk46": 4780,
      "pattern": 4781,
      "goroku": 4782,
      "censor": 4783,
      "numeral": 4784,
      "battlefield": 4785,
      "prefecture": 4786,
      "lalafell": 4787,
      "queen": 4788,
      "model": 4789,
      "xiaobanbei": 4790,
      "miyoshist": 4791,
      "minecraft": 4792,
      "reeds": 4793,
      "ptian": 4794,
      "dunge": 4795,
      "psych": 4796,
      "quiver": 4797,
      "club": 4798,
      "ginkgo": 4799,
      "suzuke": 4800,
      "golden": 4801,
      "length": 4802,
      "alchemy": 4803,
      "bobbles": 4804,
      "cocktail": 4805,
      "flashlight": 4806,
      "egyptian": 4807,
      "fedora": 4808,
      "jobski": 4809,
      "kumeki": 4810,
      "infection": 4811,
      "lollipop": 4812,
      "orchid": 4813,
      "leveilleur": 4814,
      "alpaca": 4815,
      "dodoco": 4816,
      "unicorn": 4817,
      "armillary": 4818,
      "kaslana": 4819,
      "kajatony": 4820,
      "pixiv12957613": 4821,
      "kk4615": 4822,
      "1gla": 4823,
      "2n": 4824,
      "95": 4825,
      ":<,": 4826,
      "ah": 4827,
      "bian": 4828,
      "bito": 4829,
      "cinkai": 4830,
      "ded": 4831,
      "epi": 4832,
      "epau": 4833,
      "fre": 4834,
      "fal": 4835,
      "freed": 4836,
      "gap": 4837,
      "iving": 4838,
      "jy": 4839,
      "kis": 4840,
      "lil": 4841,
      "luka": 4842,
      "mural": 4843,
      "niko": 4844,
      "oz": 4845,
      "ptoes": 4846,
      "rat": 4847,
      "sag": 4848,
      "sato": 4849,
      "saga": 4850,
      "uya": 4851,
      "vin": 4852,
      "wan": 4853,
      "warm": 4854,
      "yayoi": 4855,
      "zm": 4856,
      "zuber": 4857,
      "in08": 4858,
      "irl": 4859,
      "irrel": 4860,
      "erut": 4861,
      "ann": 4862,
      "ancing": 4863,
      "reon": 4864,
      "lem": 4865,
      "left": 4866,
      "shen": 4867,
      "hama": 4868,
      "hawk": 4869,
      "igyou": 4870,
      "igirl": 4871,
      "oufl": 4872,
      "skind": 4873,
      "stones": 4874,
      "stadi": 4875,
      "domo": 4876,
      "doom": 4877,
      "hok": 4878,
      "hoop": 4879,
      "chto": 4880,
      "etics": 4881,
      "coco": 4882,
      "cosm": 4883,
      "giri": 4884,
      "tacti": 4885,
      "taku": 4886,
      "idou": 4887,
      "udon": 4888,
      "unsheathed": 4889,
      "api": 4890,
      "soku": 4891,
      "iming": 4892,
      "tic": 4893,
      "tips": 4894,
      "tiptoes": 4895,
      "okami": 4896,
      "amu": 4897,
      "amatsuki": 4898,
      "americ": 4899,
      "thorn": 4900,
      "now": 4901,
      "riss": 4902,
      "rielight": 4903,
      "entation": 4904,
      "treehouse": 4905,
      "sect": 4906,
      "sebam": 4907,
      "poo": 4908,
      "sunny": 4909,
      "lian": 4910,
      "li0n": 4911,
      "plank": 4912,
      "tochi": 4913,
      "nation": 4914,
      "natsume": 4915,
      "natsuno": 4916,
      "comple": 4917,
      "akami": 4918,
      "mio": 4919,
      "stance": 4920,
      "bee": 4921,
      "heater": 4922,
      "maju": 4923,
      "sug": 4924,
      "herb": 4925,
      "izu": 4926,
      "izuku": 4927,
      "teru": 4928,
      "saigyou": 4929,
      "usag": 4930,
      "clothed": 4931,
      "estini": 4932,
      "las": 4933,
      "lainn": 4934,
      "mecha": 4935,
      "ism": 4936,
      "tran": 4937,
      "wayne": 4938,
      "shiwo": 4939,
      "staircase": 4940,
      "phil": 4941,
      "quac": 4942,
      "asure": 4943,
      "powers": 4944,
      "houseki": 4945,
      "twins": 4946,
      "ache": 4947,
      "yuuka": 4948,
      "yasha": 4949,
      "nasus": 4950,
      "toufu": 4951,
      "hibike": 4952,
      "monkey": 4953,
      "lineau": 4954,
      "bye": 4955,
      "crab": 4956,
      "chika": 4957,
      "furrowed": 4958,
      "dragonslayer": 4959,
      "yomo": 4960,
      "yozora": 4961,
      "minigirl": 4962,
      "darkhikari": 4963,
      "flap": 4964,
      "manjuu": 4965,
      "arianga": 4966,
      "barbara": 4967,
      "nido": 4968,
      "banana": 4969,
      "anchor": 4970,
      "gyback": 4971,
      "tong": 4972,
      "tonari": 4973,
      "crt": 4974,
      "balancing": 4975,
      "shushiwo": 4976,
      "hology": 4977,
      "denis": 4978,
      "kaijuu": 4979,
      "tensei": 4980,
      "corrug": 4981,
      "yuuri": 4982,
      "vanised": 4983,
      "mago": 4984,
      "istomin": 4985,
      "camoufl": 4986,
      "kyrielight": 4987,
      "kamo": 4988,
      "pui": 4989,
      "pura": 4990,
      "portal": 4991,
      "elevator": 4992,
      "obijime": 4993,
      "aura": 4994,
      "auraha": 4995,
      "warp": 4996,
      "planetarianga": 4997,
      "yukino": 4998,
      "axis": 4999,
      "inuyasha": 5000,
      "liquor": 5001,
      "mugumo": 5002,
      "crystalfly": 5003,
      "harp": 5004,
      "marine": 5005,
      "kagami": 5006,
      "24k": 5007,
      "ramune": 5008,
      "solid": 5009,
      "103": 5010,
      "galvanised": 5011,
      "monocle": 5012,
      "york": 5013,
      "yurichto": 5014,
      "471gla": 5015,
      "0831": 5016,
      "051": 5017,
      "theresa": 5018,
      "twisted": 5019,
      "yamaneko": 5020,
      "hayapi": 5021,
      "strife": 5022,
      "patreon": 5023,
      "qdsn": 5024,
      "polka": 5025,
      "morino": 5026,
      "8686": 5027,
      "weibo": 5028,
      "fiction": 5029,
      "ogino": 5030,
      "chulainn": 5031,
      "kingdom": 5032,
      "treasure": 5033,
      "xiaoke": 5034,
      "karasu": 5035,
      "identity": 5036,
      "mythology": 5037,
      "tetra": 5038,
      "sinon": 5039,
      "prince": 5040,
      "future": 5041,
      "kongshushiwo": 5042,
      "piggyback": 5043,
      "contrast": 5044,
      "zhuang": 5045,
      "caution": 5046,
      "kanasemi": 5047,
      "destroyer": 5048,
      "messenger": 5049,
      "goodbye": 5050,
      "affe": 5051,
      "varlineau": 5052,
      "seymour": 5053,
      "sinsin08": 5054,
      "scarecrow": 5055,
      "united": 5056,
      "phanta": 5057,
      "kanzashi": 5058,
      "stepping": 5059,
      "freediving": 5060,
      "warmers": 5061,
      "zuberg": 5062,
      "erutwd": 5063,
      "skindentation": 5064,
      "stadium": 5065,
      "cosmetics": 5066,
      "tactical": 5067,
      "thorns": 5068,
      "sebamaster": 5069,
      "tochichima": 5070,
      "izukuri": 5071,
      "estinien": 5072,
      "quacx3": 5073,
      "corrugated": 5074,
      "camouflage": 5075,
      "aurahack": 5076,
      "planetariangaolin": 5077,
      "yurichtofen": 5078,
      "471glacia": 5079,
      "yamaneko8686": 5080,
      "sinsin08051": 5081,
      "!!,": 5082,
      ")),": 5083,
      "-,": 5084,
      "06": 5085,
      "112": 5086,
      "1neg": 5087,
      "32": 5088,
      "35": 5089,
      "75": 5090,
      "88": 5091,
      ":,": 5092,
      ":/,": 5093,
      "act": 5094,
      "across": 5095,
      "c0": 5096,
      "cc": 5097,
      "cery": 5098,
      "came": 5099,
      "corn": 5100,
      "dur": 5101,
      "eag": 5102,
      "eki": 5103,
      "egi": 5104,
      "fus": 5105,
      "fude": 5106,
      "grip": 5107,
      "hari": 5108,
      "hmilk": 5109,
      "ius": 5110,
      "iori": 5111,
      "iphone": 5112,
      "ibuki": 5113,
      "kle": 5114,
      "konya": 5115,
      "kinesis": 5116,
      "lus": 5117,
      "late": 5118,
      "mra": 5119,
      "mort": 5120,
      "matsu": 5121,
      "mito": 5122,
      "mayu": 5123,
      "mayoi": 5124,
      "nou": 5125,
      "nut": 5126,
      "nest": 5127,
      "nyan": 5128,
      "omo": 5129,
      "oven": 5130,
      "pun": 5131,
      "pear": 5132,
      "pinn": 5133,
      "qiao": 5134,
      "rind": 5135,
      "s4": 5136,
      "sma": 5137,
      "swa": 5138,
      "sutch": 5139,
      "tho": 5140,
      "tsur": 5141,
      "uit": 5142,
      "ubou": 5143,
      "vane": 5144,
      "vial": 5145,
      "wska": 5146,
      "xro": 5147,
      "yen": 5148,
      "zir": 5149,
      "zata": 5150,
      "insect": 5151,
      "eri": 5152,
      "lou": 5153,
      "loose": 5154,
      "orz": 5155,
      "endo": 5156,
      "enpera": 5157,
      "rex": 5158,
      "return": 5159,
      "lei": 5160,
      "lele": 5161,
      "lemon": 5162,
      "aro": 5163,
      "sham": 5164,
      "haz": 5165,
      "igasaki": 5166,
      "escent": 5167,
      "ona": 5168,
      "alph": 5169,
      "albino": 5170,
      "bly": 5171,
      "rashi": 5172,
      "raft": 5173,
      "radar": 5174,
      "take": 5175,
      "union": 5176,
      "amoto": 5177,
      "thunder": 5178,
      "folder": 5179,
      "seisou": 5180,
      "agami": 5181,
      "vector": 5182,
      "lief": 5183,
      "plum": 5184,
      "toaster": 5185,
      "astron": 5186,
      "ryo": 5187,
      "natsu": 5188,
      "urine": 5189,
      "force": 5190,
      "beet": 5191,
      "nez": 5192,
      "nekom": 5193,
      "greco": 5194,
      "macar": 5195,
      "armlet": 5196,
      "deck": 5197,
      "animalization": 5198,
      "suika": 5199,
      "fixro": 5200,
      "izayoi": 5201,
      "teruter": 5202,
      "syiori": 5203,
      "sae": 5204,
      "sabo": 5205,
      "gran": 5206,
      "gren": 5207,
      "grill": 5208,
      "useller": 5209,
      "laugh": 5210,
      "windows": 5211,
      "isaki": 5212,
      "cats": 5213,
      "cattail": 5214,
      "catzz": 5215,
      "fusui": 5216,
      "artoria": 5217,
      "shijoh": 5218,
      "sert": 5219,
      "quin": 5220,
      "asagi": 5221,
      "lettes": 5222,
      "insbor": 5223,
      "dier": 5224,
      "diagon": 5225,
      "potion": 5226,
      "yuyuk": 5227,
      "yahiro": 5228,
      "drain": 5229,
      "dragoon": 5230,
      "koito": 5231,
      "guzh": 5232,
      "cargo": 5233,
      "borrowed": 5234,
      "bysau": 5235,
      "ronii": 5236,
      "gonza": 5237,
      "gomi": 5238,
      "yoimi": 5239,
      "xingqiu": 5240,
      "milia": 5241,
      "singer": 5242,
      "calli": 5243,
      "calico": 5244,
      "aze": 5245,
      "azi": 5246,
      "barbed": 5247,
      "kenji": 5248,
      "akiha": 5249,
      "player": 5250,
      "grocery": 5251,
      "kanagawa": 5252,
      "dale": 5253,
      "gaiden": 5254,
      "gainsbor": 5255,
      "shipping": 5256,
      "shipwreck": 5257,
      "states": 5258,
      "surpri": 5259,
      "paddle": 5260,
      "shrimp": 5261,
      "subfiction": 5262,
      "magia": 5263,
      "runes": 5264,
      "capri": 5265,
      "capital": 5266,
      "kero": 5267,
      "kyoto": 5268,
      "spaces": 5269,
      "notepad": 5270,
      "squirrel": 5271,
      "danzir": 5272,
      "dessert": 5273,
      "zewska": 5274,
      "stalact": 5275,
      "cluseller": 5276,
      "myung": 5277,
      "itsuchi": 5278,
      "ashorz": 5279,
      "shirakami": 5280,
      "tabibito": 5281,
      "ooo": 5282,
      "tartag": 5283,
      "shingeki": 5284,
      "wiping": 5285,
      "scale": 5286,
      "kaguya": 5287,
      "viera": 5288,
      "ability": 5289,
      "ramen": 5290,
      "soldier": 5291,
      "meipu": 5292,
      "101neg": 5293,
      "tomoe": 5294,
      "eugen": 5295,
      "nijigasaki": 5296,
      "sauer": 5297,
      "nagato": 5298,
      "jungle": 5299,
      "kyojin": 5300,
      "thermos": 5301,
      "advent": 5302,
      "shoebill": 5303,
      "kurohal": 5304,
      "jumpy": 5305,
      "ninja": 5306,
      "aerith": 5307,
      "chinabana": 5308,
      "gorzata": 5309,
      "kuroneko": 5310,
      "malgorzata": 5311,
      "peeking": 5312,
      "jingle": 5313,
      "shigure": 5314,
      "miklas": 5315,
      "censer": 5316,
      "poppo": 5317,
      "battleship": 5318,
      "1234": 5319,
      "russian": 5320,
      "firing": 5321,
      "gingham": 5322,
      "rimless": 5323,
      "ventil": 5324,
      "connect": 5325,
      "prinz": 5326,
      "knitting": 5327,
      "prachinabana": 5328,
      "kumomachi": 5329,
      "fours": 5330,
      "ushitsuchi": 5331,
      "thumb": 5332,
      "empty": 5333,
      "hedgehog": 5334,
      "sakuya": 5335,
      "talking": 5336,
      "datako": 5337,
      "dumpty": 5338,
      "jizou": 5339,
      "rhine": 5340,
      "distant": 5341,
      "missile228": 5342,
      "psychoro": 5343,
      "dedede": 5344,
      "episode": 5345,
      "epaulettes": 5346,
      "american": 5347,
      "usagino": 5348,
      "karasue": 5349,
      "tetrapod": 5350,
      "cameo": 5351,
      "eagle": 5352,
      "mayuge": 5353,
      "pinned": 5354,
      "rindou": 5355,
      "sutchy": 5356,
      "ubouzu": 5357,
      "nekomata": 5358,
      "macaron": 5359,
      "fixro2n": 5360,
      "teruterubouzu": 5361,
      "laughing": 5362,
      "shijohane": 5363,
      "diagonal": 5364,
      "guzheng": 5365,
      "gonzales": 5366,
      "yoimiya": 5367,
      "gainsborough": 5368,
      "surprised": 5369,
      "spacesuit": 5370,
      "stalactite": 5371,
      "tartaglia": 5372,
      "miklaszewska": 5373,
      "39": 5374,
      "63": 5375,
      "64": 5376,
      "628": 5377,
      "?,": 5378,
      "ase": 5379,
      "asu": 5380,
      "awak": 5381,
      "birt": 5382,
      "bane": 5383,
      "bili": 5384,
      "cout": 5385,
      "dt": 5386,
      "del": 5387,
      "drying": 5388,
      "dong": 5389,
      "eding": 5390,
      "eclip": 5391,
      "fine": 5392,
      "fetti": 5393,
      "gin": 5394,
      "hide": 5395,
      "hut": 5396,
      "hila": 5397,
      "hisou": 5398,
      "ich": 5399,
      "jon": 5400,
      "jid": 5401,
      "jag": 5402,
      "jump": 5403,
      "jong": 5404,
      "kel": 5405,
      "kous": 5406,
      "kage": 5407,
      "kita": 5408,
      "koro": 5409,
      "koko": 5410,
      "mg": 5411,
      "mun": 5412,
      "mey": 5413,
      "mam": 5414,
      "mand": 5415,
      "mur": 5416,
      "mme": 5417,
      "nc": 5418,
      "ned": 5419,
      "nint": 5420,
      "nara": 5421,
      "nke": 5422,
      "oba": 5423,
      "ookami": 5424,
      "pay": 5425,
      "pture": 5426,
      "qq": 5427,
      "rsc": 5428,
      "rup": 5429,
      "ssh": 5430,
      "satch": 5431,
      "til": 5432,
      "that": 5433,
      "tuber": 5434,
      "tely": 5435,
      "uan": 5436,
      "vd": 5437,
      "vine": 5438,
      "vtuber": 5439,
      "woman": 5440,
      "x0": 5441,
      "yy": 5442,
      "~,": 5443,
      "iny": 5444,
      "inum": 5445,
      "lower": 5446,
      "oriko": 5447,
      "anni": 5448,
      "enot": 5449,
      "enia": 5450,
      "ension": 5451,
      "enomori": 5452,
      "ingo": 5453,
      "leo": 5454,
      "arin": 5455,
      "shan": 5456,
      "shine": 5457,
      "shink": 5458,
      "hadan": 5459,
      "hazard": 5460,
      "escal": 5461,
      "espen": 5462,
      "onon": 5463,
      "onzard": 5464,
      "atula": 5465,
      "str": 5466,
      "stu": 5467,
      "stilt": 5468,
      "stache": 5469,
      "scul": 5470,
      "blad": 5471,
      "doki": 5472,
      "ross": 5473,
      "roth": 5474,
      "howa": 5475,
      "outlet": 5476,
      "rapier": 5477,
      "bocchi": 5478,
      "sse": 5479,
      "doora": 5480,
      "otai": 5481,
      "umaki": 5482,
      "cod": 5483,
      "giraffe": 5484,
      "taidai": 5485,
      "origins": 5486,
      "unreal": 5487,
      "unbutt": 5488,
      "undead": 5489,
      "appa": 5490,
      "elac": 5491,
      "ayuki": 5492,
      "amuse": 5493,
      "amenomori": 5494,
      "addle": 5495,
      "fom": 5496,
      "seop": 5497,
      "sewing": 5498,
      "section": 5499,
      "seash": 5500,
      "poi": 5501,
      "popped": 5502,
      "agu": 5503,
      "llis": 5504,
      "dressing": 5505,
      "liang": 5506,
      "living": 5507,
      "toed": 5508,
      "tooth": 5509,
      "come": 5510,
      "uruma": 5511,
      "aky": 5512,
      "miz": 5513,
      "michi": 5514,
      "build": 5515,
      "muji": 5516,
      "musume": 5517,
      "mustache": 5518,
      "ieg": 5519,
      "gram": 5520,
      "grap": 5521,
      "beak": 5522,
      "nemop": 5523,
      "starfish": 5524,
      "mai": 5525,
      "bangqiao": 5526,
      "momon": 5527,
      "ionsen": 5528,
      "oling": 5529,
      "olsen": 5530,
      "vers": 5531,
      "bass": 5532,
      "bachi": 5533,
      "herrsc": 5534,
      "izer": 5535,
      "syn": 5536,
      "sawa": 5537,
      "saeter": 5538,
      "sagiri": 5539,
      "ruler": 5540,
      "namizukuri": 5541,
      "lava": 5542,
      "mega": 5543,
      "ison": 5544,
      "shia": 5545,
      "bookmark": 5546,
      "spatula": 5547,
      "stairwell": 5548,
      "kabu": 5549,
      "karei": 5550,
      "shared": 5551,
      "crossh": 5552,
      "feeding": 5553,
      "iana": 5554,
      "confetti": 5555,
      "diao": 5556,
      "orisu": 5557,
      "potet": 5558,
      "pantyshot": 5559,
      "pedo": 5560,
      "yura": 5561,
      "yaoi": 5562,
      "petting": 5563,
      "windsock": 5564,
      "smir": 5565,
      "cupboard": 5566,
      "hise": 5567,
      "monorisu": 5568,
      "papi": 5569,
      "papiron": 5570,
      "package": 5571,
      "byou": 5572,
      "pia": 5573,
      "aneki": 5574,
      "berg": 5575,
      "welsh": 5576,
      "kirito": 5577,
      "go2": 5578,
      "ledge": 5579,
      "undershirt": 5580,
      "huan": 5581,
      "merry": 5582,
      "flute": 5583,
      "iescout": 5584,
      "wallpaper": 5585,
      "toki": 5586,
      "xiii": 5587,
      "choc0": 5588,
      "buton": 5589,
      "playground": 5590,
      "bloody": 5591,
      "grocer": 5592,
      "gym": 5593,
      "kemme": 5594,
      "forever": 5595,
      "dao": 5596,
      "daidai": 5597,
      "gasa": 5598,
      "gawa": 5599,
      "swan": 5600,
      "ishiro": 5601,
      "beamed": 5602,
      "tensui": 5603,
      "ggg": 5604,
      "vanity": 5605,
      "angelina": 5606,
      "subarashi": 5607,
      "akawa": 5608,
      "bougami": 5609,
      "cryp": 5610,
      "1304": 5611,
      "masterwork": 5612,
      "silk": 5613,
      "pul": 5614,
      "katakai": 5615,
      "umiya": 5616,
      "lapis": 5617,
      "sakatsuki": 5618,
      "sidesaddle": 5619,
      "0913": 5620,
      "toru": 5621,
      "torpedo": 5622,
      "hetic": 5623,
      "platinum": 5624,
      "hanagam": 5625,
      "zenonzard": 5626,
      "shirou": 5627,
      "shirayuki": 5628,
      "dousa": 5629,
      "oda020": 5630,
      "electrical": 5631,
      "target": 5632,
      "triangular": 5633,
      "tsushima": 5634,
      "stylus": 5635,
      "zabuton": 5636,
      "viet": 5637,
      "lifotai": 5638,
      "ulpha": 5639,
      "flats": 5640,
      "meteion": 5641,
      "yoru": 5642,
      "rani": 5643,
      "seaside": 5644,
      "megurine": 5645,
      "cour": 5646,
      "nagishiro": 5647,
      "orbital": 5648,
      "kouka": 5649,
      "flippers": 5650,
      "mitu": 5651,
      "selfie": 5652,
      "diluc": 5653,
      "utaite": 5654,
      "victori": 5655,
      "komon": 5656,
      "mikko": 5657,
      "mizuasagi": 5658,
      "hirok": 5659,
      "dreame": 5660,
      "laluna": 5661,
      "molcar": 5662,
      "timbougami": 5663,
      "donald": 5664,
      "pixiescout": 5665,
      "trellis": 5666,
      "mikazuki": 5667,
      "kano545": 5668,
      "fighter": 5669,
      "gazebo": 5670,
      "games": 5671,
      "nikki": 5672,
      "freezer": 5673,
      "jeanne": 5674,
      "kakelele": 5675,
      "gourd": 5676,
      "shackles": 5677,
      "agogo2": 5678,
      "kazami1304": 5679,
      "chisagogo2": 5680,
      "hoshimiya": 5681,
      "prosthetic": 5682,
      "alex": 5683,
      "omegu": 5684,
      "sukionsen": 5685,
      "heroes": 5686,
      "fishnets": 5687,
      "dora0913": 5688,
      "kotomi": 5689,
      "oc10": 5690,
      "osomaki": 5691,
      "yumemayoi": 5692,
      "ibsukionsen": 5693,
      "pengrani": 5694,
      "rzx0": 5695,
      "igendai": 5696,
      "furi0831": 5697,
      "protected": 5698,
      "dungeon": 5699,
      "completely": 5700,
      "saigyouji": 5701,
      "yomoya": 5702,
      "magolor": 5703,
      "kagamihara": 5704,
      "mrakano545": 5705,
      "yuyuko": 5706,
      "calliope": 5707,
      "myungseop": 5708,
      "birth": 5709,
      "eclipse": 5710,
      "jaggy": 5711,
      "jumpsuit": 5712,
      "nintendo": 5713,
      "satchel": 5714,
      "thatched": 5715,
      "hadanugi": 5716,
      "escalator": 5717,
      "sculpture": 5718,
      "unbuttoned": 5719,
      "amusement": 5720,
      "seashell": 5721,
      "nemophila": 5722,
      "momonimo": 5723,
      "herrscher": 5724,
      "saetervik": 5725,
      "crosshatching": 5726,
      "papiron100": 5727,
      "groceries": 5728,
      "subarashii": 5729,
      "hanagamigendai": 5730,
      "oda0208": 5731,
      "ulpha220": 5732,
      "mrakano5456": 5733,
      "109": 5734,
      "5others": 5735,
      "7th": 5736,
      "7lava": 5737,
      "84": 5738,
      "96": 5739,
      ">:": 5740,
      "alo": 5741,
      "awo": 5742,
      "ajou": 5743,
      "aiming": 5744,
      "bender": 5745,
      "cure": 5746,
      "cbly": 5747,
      "dim": 5748,
      "dtree": 5749,
      "dag": 5750,
      "dred": 5751,
      "eo": 5752,
      "emon": 5753,
      "eva": 5754,
      "fry": 5755,
      "fland": 5756,
      "fins": 5757,
      "hans": 5758,
      "hsi": 5759,
      "hiko": 5760,
      "jl": 5761,
      "jade": 5762,
      "jason": 5763,
      "jjy": 5764,
      "k6": 5765,
      "kla": 5766,
      "kine": 5767,
      "klegs": 5768,
      "ksw": 5769,
      "kiki": 5770,
      "kuma": 5771,
      "kuru": 5772,
      "kiana": 5773,
      "lam": 5774,
      "lime": 5775,
      "mp": 5776,
      "mall": 5777,
      "mint": 5778,
      "mange": 5779,
      "myou": 5780,
      "maneki": 5781,
      "nant": 5782,
      "nay": 5783,
      "naku": 5784,
      "owa": 5785,
      "ogi": 5786,
      "pg": 5787,
      "piz": 5788,
      "ppost": 5789,
      "pino": 5790,
      "rig": 5791,
      "rud": 5792,
      "rent": 5793,
      "rill": 5794,
      "rank": 5795,
      "riri": 5796,
      "say": 5797,
      "sound": 5798,
      "s73": 5799,
      "tz": 5800,
      "toto": 5801,
      "tsam": 5802,
      "vort": 5803,
      "wring": 5804,
      "xe": 5805,
      "xx": 5806,
      "ysk": 5807,
      "yori": 5808,
      "yaku": 5809,
      "zan": 5810,
      "zilla": 5811,
      "error": 5812,
      "erdtree": 5813,
      "lop": 5814,
      "loss": 5815,
      "loved": 5816,
      "anc": 5817,
      "anui": 5818,
      "remilia": 5819,
      "leigh": 5820,
      "arada": 5821,
      "shun": 5822,
      "shang": 5823,
      "shuku": 5824,
      "shjjy": 5825,
      "haya": 5826,
      "hasumi": 5827,
      "harem": 5828,
      "igi": 5829,
      "ouro": 5830,
      "ester": 5831,
      "onto": 5832,
      "atat": 5833,
      "atmo": 5834,
      "stic": 5835,
      "stall": 5836,
      "stia": 5837,
      "albe": 5838,
      "algae": 5839,
      "alien": 5840,
      "sci": 5841,
      "dola": 5842,
      "dokomon": 5843,
      "rowing": 5844,
      "roko": 5845,
      "rad": 5846,
      "race": 5847,
      "raja": 5848,
      "rakka": 5849,
      "educt": 5850,
      "umaru": 5851,
      "tale": 5852,
      "taur": 5853,
      "tama": 5854,
      "taxi": 5855,
      "takano": 5856,
      "tamikko": 5857,
      "origin": 5858,
      "unim": 5859,
      "soar": 5860,
      "soft": 5861,
      "solar": 5862,
      "eyed": 5863,
      "amber": 5864,
      "amura": 5865,
      "thes": 5866,
      "admir": 5867,
      "whis": 5868,
      "novel": 5869,
      "noasa": 5870,
      "riko": 5871,
      "anger": 5872,
      "seed": 5873,
      "seka": 5874,
      "seven": 5875,
      "secur": 5876,
      "sepia": 5877,
      "poss": 5878,
      "agen": 5879,
      "ica": 5880,
      "icaa": 5881,
      "licking": 5882,
      "plus": 5883,
      "odw": 5884,
      "toast": 5885,
      "compass": 5886,
      "urou": 5887,
      "misty": 5888,
      "mushi": 5889,
      "opia": 5890,
      "gravel": 5891,
      "maeda": 5892,
      "army": 5893,
      "bangle": 5894,
      "movie": 5895,
      "hatsu": 5896,
      "hatoko": 5897,
      "sideup": 5898,
      "headlight": 5899,
      "saber": 5900,
      "handle": 5901,
      "airbender": 5902,
      "view": 5903,
      "usicaa": 5904,
      "namako": 5905,
      "shovel": 5906,
      "shoelac": 5907,
      "meola": 5908,
      "isman": 5909,
      "lycor": 5910,
      "catching": 5911,
      "arttsam": 5912,
      "shiko": 5913,
      "bride": 5914,
      "bronto": 5915,
      "omumaru": 5916,
      "shoukai": 5917,
      "seraph": 5918,
      "sped": 5919,
      "amplifi": 5920,
      "wai": 5921,
      "wase": 5922,
      "cleaning": 5923,
      "quad": 5924,
      "croco": 5925,
      "croiss": 5926,
      "asakura": 5927,
      "obake": 5928,
      "observatory": 5929,
      "lettu": 5930,
      "ike": 5931,
      "ikan": 5932,
      "onoz": 5933,
      "onomiya": 5934,
      "oripath": 5935,
      "pebble": 5936,
      "kogasa": 5937,
      "nausicaa": 5938,
      "guazi": 5939,
      "carbine": 5940,
      "elfilin": 5941,
      "pile": 5942,
      "picket": 5943,
      "berd": 5944,
      "gondola": 5945,
      "chips": 5946,
      "markings": 5947,
      "canned": 5948,
      "sweet": 5949,
      "kiseki": 5950,
      "aqueduct": 5951,
      "cute": 5952,
      "prop": 5953,
      "product": 5954,
      "bishop": 5955,
      "avo": 5956,
      "lesion": 5957,
      "facepaint": 5958,
      "interlocked": 5959,
      "daugh": 5960,
      "transl": 5961,
      "crater": 5962,
      "holostars": 5963,
      "beachball": 5964,
      "inaud": 5965,
      "inaba": 5966,
      "chef": 5967,
      "kaido": 5968,
      "drooling": 5969,
      "corgi": 5970,
      "yuujin": 5971,
      "mira": 5972,
      "cowbell": 5973,
      "senshi": 5974,
      "ladle": 5975,
      "jug": 5976,
      "puppet": 5977,
      "middle": 5978,
      "ningguang": 5979,
      "tatara": 5980,
      "halberd": 5981,
      "cul": 5982,
      "kamakura": 5983,
      "yousei": 5984,
      "1101": 5985,
      "empy": 5986,
      "anoc": 5987,
      "silo": 5988,
      "sive": 5989,
      "005": 5990,
      "008": 5991,
      "sakana": 5992,
      "hylian": 5993,
      "yukihana": 5994,
      "shiranui": 5995,
      "buluku": 5996,
      "iveloved": 5997,
      "maria": 5998,
      "italg": 5999,
      "burt": 6000,
      "burger": 6001,
      "suspension": 6002,
      "satori": 6003,
      "satuma": 6004,
      "oise": 6005,
      "porim": 6006,
      "eula": 6007,
      "clasped": 6008,
      "zzle": 6009,
      "sauce": 6010,
      "placement": 6011,
      "latin": 6012,
      "cyrill": 6013,
      "sample": 6014,
      "samurai": 6015,
      "kourindou": 6016,
      "simz": 6017,
      "watari": 6018,
      "karakasa": 6019,
      "suisei": 6020,
      "digimon": 6021,
      "haruhi": 6022,
      "daiyousei": 6023,
      "wangxiii": 6024,
      "suzume": 6025,
      "suzumiya": 6026,
      "patio": 6027,
      "goose": 6028,
      "kurumi": 6029,
      "kurtz": 6030,
      "malenia": 6031,
      "nanami": 6032,
      "nengajou": 6033,
      "devin": 6034,
      "whisker": 6035,
      "manyodw": 6036,
      "hiromumaru": 6037,
      "nicporim": 6038,
      "precure": 6039,
      "volksw": 6040,
      "lalana": 6041,
      "projekt": 6042,
      "chocobo": 6043,
      "qingxin": 6044,
      "noren": 6045,
      "haguruma": 6046,
      "0214": 6047,
      "ugoku": 6048,
      "296": 6049,
      "aeuna": 6050,
      "yasaka": 6051,
      "spheric": 6052,
      "kusazuri": 6053,
      "futon": 6054,
      "kayano": 6055,
      "nanabuluku": 6056,
      "max58": 6057,
      "contrappost": 6058,
      "luoxiaohei": 6059,
      "joemanyodw": 6060,
      "talisman": 6061,
      "tools": 6062,
      "mcdonald": 6063,
      "sangonomiya": 6064,
      "higurashi": 6065,
      "ygc": 6066,
      "praying": 6067,
      "shenhe": 6068,
      "hokkaido": 6069,
      "sunnysideup": 6070,
      "phantasma": 6071,
      "noumin": 6072,
      "pearl": 6073,
      "alphinaud": 6074,
      "astronaut": 6075,
      "granblue": 6076,
      "windowsill": 6077,
      "drainpipe": 6078,
      "ventilation": 6079,
      "awakening": 6080,
      "kokomi": 6081,
      "meyer": 6082,
      "payphone": 6083,
      "tilted": 6084,
      "annivers": 6085,
      "blades": 6086,
      "grapes": 6087,
      "smirk": 6088,
      "hirokima": 6089,
      "birthday": 6090,
      "cblyc": 6091,
      "dagger": 6092,
      "flandre": 6093,
      "hsiang": 6094,
      "klegsart": 6095,
      "lamy": 6096,
      "mangekyou": 6097,
      "pizza": 6098,
      "s73d": 6099,
      "vortex": 6100,
      "wringing": 6101,
      "shukufuku": 6102,
      "shjjy296": 6103,
      "atmospheric": 6104,
      "albedo": 6105,
      "rajawat": 6106,
      "admiral": 6107,
      "sekaowa": 6108,
      "security": 6109,
      "shoelaces": 6110,
      "lycoris": 6111,
      "shoukaihan": 6112,
      "seraphitalg": 6113,
      "amplifier": 6114,
      "croissant": 6115,
      "lettuce": 6116,
      "oripathy": 6117,
      "daughter": 6118,
      "ivelovedsekaowa": 6119,
      "cyrillic": 6120,
      "volkswagen": 6121,
      "max58art": 6122,
      "contrapposto": 6123,
      "anniversary": 6124,
      "+,": 6125,
      "022": 6126,
      "1de": 6127,
      "1093": 6128,
      "30": 6129,
      "3d": 6130,
      "72": 6131,
      "721": 6132,
      "7008": 6133,
      "805": 6134,
      "881": 6135,
      "aso": 6136,
      "aikatsu": 6137,
      "bw": 6138,
      "blee": 6139,
      "bart": 6140,
      "baki": 6141,
      "bson": 6142,
      "cel": 6143,
      "cca": 6144,
      "core": 6145,
      "dice": 6146,
      "eps": 6147,
      "fq": 6148,
      "fsh": 6149,
      "fel": 6150,
      "farti": 6151,
      "ges": 6152,
      "gum": 6153,
      "glad": 6154,
      "goku": 6155,
      "g11": 6156,
      "gumi": 6157,
      "griff": 6158,
      "g38": 6159,
      "hd": 6160,
      "him": 6161,
      "hiz": 6162,
      "hard": 6163,
      "hesis": 6164,
      "hroo": 6165,
      "iw": 6166,
      "jd": 6167,
      "j0214": 6168,
      "kf": 6169,
      "kyu": 6170,
      "kaku": 6171,
      "kora": 6172,
      "kagi": 6173,
      "know": 6174,
      "kriss": 6175,
      "kronii": 6176,
      "lud": 6177,
      "lic": 6178,
      "luffy": 6179,
      "lune": 6180,
      "mk": 6181,
      "mother": 6182,
      "nj": 6183,
      "nir": 6184,
      "nono": 6185,
      "nari": 6186,
      "naga": 6187,
      "noka": 6188,
      "nayan": 6189,
      "o22": 6190,
      "pk": 6191,
      "pher": 6192,
      "pito": 6193,
      "p90": 6194,
      "rho": 6195,
      "rina": 6196,
      "sr": 6197,
      "sap": 6198,
      "seng": 6199,
      "sla": 6200,
      "sis": 6201,
      "sayu": 6202,
      "satsuki": 6203,
      "siri": 6204,
      "sleigh": 6205,
      "uz": 6206,
      "uor": 6207,
      "uim": 6208,
      "uwa": 6209,
      "ubi": 6210,
      "vv": 6211,
      "vir": 6212,
      "vil": 6213,
      "ww": 6214,
      "want": 6215,
      "wrait": 6216,
      "xd": 6217,
      "xinu": 6218,
      "yum": 6219,
      "yuni": 6220,
      "zin": 6221,
      "zing": 6222,
      "zhao": 6223,
      "inou": 6224,
      "inob": 6225,
      "inato": 6226,
      "err": 6227,
      "erou": 6228,
      "erlk": 6229,
      "loe": 6230,
      "lore": 6231,
      "loft": 6232,
      "logi": 6233,
      "lops": 6234,
      "orca": 6235,
      "orama": 6236,
      "anko": 6237,
      "anish": 6238,
      "res": 6239,
      "reisen": 6240,
      "rebuild": 6241,
      "arbor": 6242,
      "aria": 6243,
      "shaf": 6244,
      "sheng": 6245,
      "shoku": 6246,
      "shida": 6247,
      "shutter": 6248,
      "hati": 6249,
      "hades": 6250,
      "ouli": 6251,
      "oubachi": 6252,
      "sks": 6253,
      "esu": 6254,
      "onet": 6255,
      "atter": 6256,
      "atte": 6257,
      "attorn": 6258,
      "stics": 6259,
      "alzi": 6260,
      "scat": 6261,
      "schl": 6262,
      "doze": 6263,
      "robo": 6264,
      "rocher": 6265,
      "hoku": 6266,
      "hoji": 6267,
      "hooooo": 6268,
      "rap": 6269,
      "rafa": 6270,
      "ravine": 6271,
      "boar": 6272,
      "bodi": 6273,
      "bomber": 6274,
      "eden": 6275,
      "chun": 6276,
      "chup": 6277,
      "cheng": 6278,
      "ota": 6279,
      "eta": 6280,
      "umin": 6281,
      "coil": 6282,
      "colon": 6283,
      "soy": 6284,
      "some": 6285,
      "soviet": 6286,
      "immin": 6287,
      "imoni": 6288,
      "imposs": 6289,
      "iminato": 6290,
      "eyama": 6291,
      "okinami": 6292,
      "elaaa": 6293,
      "elroth": 6294,
      "amari": 6295,
      "amatsu": 6296,
      "ammun": 6297,
      "bust": 6298,
      "buta": 6299,
      "buster": 6300,
      "when": 6301,
      "nomu": 6302,
      "nova": 6303,
      "noise": 6304,
      "ents": 6305,
      "reef": 6306,
      "lighter": 6307,
      "seph": 6308,
      "seas": 6309,
      "poll": 6310,
      "agent": 6311,
      "agaya": 6312,
      "icicle": 6313,
      "lll": 6314,
      "redra": 6315,
      "ctrum": 6316,
      "list": 6317,
      "lizard": 6318,
      "pland": 6319,
      "pline": 6320,
      "plug": 6321,
      "human": 6322,
      "tomi": 6323,
      "tofu": 6324,
      "toffs": 6325,
      "cele": 6326,
      "upskirt": 6327,
      "miqu": 6328,
      "misaki": 6329,
      "mikun": 6330,
      "optic": 6331,
      "hex": 6332,
      "heav": 6333,
      "maj": 6334,
      "mare": 6335,
      "mass": 6336,
      "moco": 6337,
      "earpiece": 6338,
      "bowstring": 6339,
      "planter": 6340,
      "paul": 6341,
      "uts": 6342,
      "utee": 6343,
      "susuki": 6344,
      "backwards": 6345,
      "fischl": 6346,
      "basa": 6347,
      "baby": 6348,
      "bahroo": 6349,
      "illumi": 6350,
      "izi": 6351,
      "sare": 6352,
      "ofu": 6353,
      "usada": 6354,
      "nama": 6355,
      "geo": 6356,
      "gein": 6357,
      "lazo": 6358,
      "railgun": 6359,
      "iser": 6360,
      "fanbox": 6361,
      "inkling": 6362,
      "uniunim": 6363,
      "lyn": 6364,
      "travel": 6365,
      "fuyu": 6366,
      "artworks": 6367,
      "ards": 6368,
      "bookbag": 6369,
      "serval": 6370,
      "spanish": 6371,
      "amputee": 6372,
      "wa7008": 6373,
      "kasa": 6374,
      "ka11": 6375,
      "ousama": 6376,
      "shacho": 6377,
      "yelan": 6378,
      "ints": 6379,
      "iken": 6380,
      "rocking": 6381,
      "rocket": 6382,
      "dia": 6383,
      "disci": 6384,
      "bandage": 6385,
      "saihara": 6386,
      "oribata": 6387,
      "peace": 6388,
      "pekora": 6389,
      "phoenot": 6390,
      "koh": 6391,
      "koyo": 6392,
      "koinob": 6393,
      "kooribata": 6394,
      "navy": 6395,
      "nahid": 6396,
      "naegi": 6397,
      "touken": 6398,
      "cupcake": 6399,
      "guoba": 6400,
      "monono": 6401,
      "firefly": 6402,
      "firewood": 6403,
      "ronin": 6404,
      "kiriko": 6405,
      "ji10": 6406,
      "gojou": 6407,
      "metal": 6408,
      "mina": 6409,
      "minas": 6410,
      "minami": 6411,
      "ruma": 6412,
      "crease": 6413,
      "kicking": 6414,
      "huri": 6415,
      "huang": 6416,
      "fluor": 6417,
      "gibson": 6418,
      "mann": 6419,
      "prim": 6420,
      "azu": 6421,
      "azuki": 6422,
      "aziga": 6423,
      "arius": 6424,
      "gundam": 6425,
      "baru": 6426,
      "ankles": 6427,
      "nishi": 6428,
      "nished": 6429,
      "nilou": 6430,
      "cutter": 6431,
      "exit": 6432,
      "helico": 6433,
      "steries": 6434,
      "banmao": 6435,
      "playstation": 6436,
      "soumura": 6437,
      "kanata": 6438,
      "gendersw": 6439,
      "keke": 6440,
      "joan": 6441,
      "joestar": 6442,
      "joints": 6443,
      "gao": 6444,
      "toned": 6445,
      "vocaloid4": 6446,
      "curled": 6447,
      "getou": 6448,
      "shulk": 6449,
      "denji": 6450,
      "tusks": 6451,
      "dulum": 6452,
      "slide": 6453,
      "slug": 6454,
      "ishima": 6455,
      "pendragon": 6456,
      "pennant": 6457,
      "pendulum": 6458,
      "tensai": 6459,
      "dromat": 6460,
      "drokinesis": 6461,
      "yuuutsu": 6462,
      "vanna": 6463,
      "senkou": 6464,
      "senpai": 6465,
      "shimitor": 6466,
      "ppin": 6467,
      "camel": 6468,
      "pastry": 6469,
      "velg": 6470,
      "cutoffs": 6471,
      "iiii": 6472,
      "okuto": 6473,
      "okurian": 6474,
      "specter": 6475,
      "2019": 6476,
      "covers": 6477,
      "silence": 6478,
      "pushed": 6479,
      "stee": 6480,
      "pixiv628": 6481,
      "skewer": 6482,
      "pical": 6483,
      "flags": 6484,
      "obiage": 6485,
      "dance": 6486,
      "danfang": 6487,
      "daniel": 6488,
      "hearts": 6489,
      "sticker": 6490,
      "snack": 6491,
      "warri": 6492,
      "lappland": 6493,
      "sakazuki": 6494,
      "valent": 6495,
      "hydrokinesis": 6496,
      "keys": 6497,
      "keystone": 6498,
      "zooo": 6499,
      "mysteries": 6500,
      "yanyan": 6501,
      "torrent": 6502,
      "baton": 6503,
      "harness": 6504,
      "phyll": 6505,
      "dough": 6506,
      "rinze": 6507,
      "chimneyart": 6508,
      "tarnished": 6509,
      "tempura": 6510,
      "xiaomi": 6511,
      "kagura": 6512,
      "kagerou": 6513,
      "kageyama": 6514,
      "zawa": 6515,
      "abs": 6516,
      "shuuichi": 6517,
      "eugeo": 6518,
      "shima3": 6519,
      "qiqi": 6520,
      "ranbu": 6521,
      "nerve": 6522,
      "seascape": 6523,
      "dishes": 6524,
      "456": 6525,
      "2263": 6526,
      "aoiminato": 6527,
      "bathing": 6528,
      "samu": 6529,
      "gurafuru": 6530,
      "simo": 6531,
      "simp": 6532,
      "333": 6533,
      "yamad": 6534,
      "reference": 6535,
      "hayakawa": 6536,
      "haibane": 6537,
      "kuroi": 6538,
      "patchouli": 6539,
      "whip": 6540,
      "strike": 6541,
      "salute": 6542,
      "swinging": 6543,
      "indecen": 6544,
      "carton": 6545,
      "dilian": 6546,
      "nanana": 6547,
      "convention": 6548,
      "trailer": 6549,
      "shigatsu": 6550,
      "776": 6551,
      "xiangling": 6552,
      "ogata": 6553,
      "diner": 6554,
      "naohiro": 6555,
      "hitori": 6556,
      "nakamura": 6557,
      "ladybug": 6558,
      "glaci": 6559,
      "timber": 6560,
      "hotel": 6561,
      "donation": 6562,
      "yuebanmao": 6563,
      "guiyuan": 6564,
      "tsukiakari": 6565,
      "mellow": 6566,
      "negative": 6567,
      "bitplus": 6568,
      "kusari": 6569,
      "cabbage": 6570,
      "gamera": 6571,
      "hanabi": 6572,
      "kumagaya": 6573,
      "mikannoka": 6574,
      "connection": 6575,
      "ptilops": 6576,
      "arcade": 6577,
      "kemushima3": 6578,
      "mitsudomo": 6579,
      "tropical": 6580,
      "labcoat": 6581,
      "cauldron": 6582,
      "thumbs": 6583,
      "onekosan": 6584,
      "caocao": 6585,
      "482263": 6586,
      "miaomiao": 6587,
      "launcher": 6588,
      "laundromat": 6589,
      "guangyue": 6590,
      "prosthesis": 6591,
      "jiege": 6592,
      "sasaki1de": 6593,
      "santo": 6594,
      "bullpup": 6595,
      "polof": 6596,
      "toeless": 6597,
      "nekonekosan": 6598,
      "momokurian": 6599,
      "flamingo": 6600,
      "bayonet": 6601,
      "hiraisaki": 6602,
      "maddoze": 6603,
      "nadeshiko": 6604,
      "pestle": 6605,
      "irene": 6606,
      "franlol": 6607,
      "falcon": 6608,
      "doomer": 6609,
      "udongein": 6610,
      "suguru": 6611,
      "flaps": 6612,
      "punch": 6613,
      "swav": 6614,
      "shampoo": 6615,
      "hazelroth": 6616,
      "nezuko": 6617,
      "oooji10": 6618,
      "jidu": 6619,
      "kousaka": 6620,
      "shinken": 6621,
      "toothbrush": 6622,
      "huanxiang": 6623,
      "gggzooo": 6624,
      "crypton": 6625,
      "mituura": 6626,
      "alexand": 6627,
      "pinoj0214": 6628,
      "rigging": 6629,
      "rudder": 6630,
      "ranking": 6631,
      "shanghai": 6632,
      "crocodilian": 6633,
      "translated": 6634,
      "yuujinchou": 6635,
      "109323": 6636,
      "805482263": 6637,
      "88100": 6638,
      "eps3rd": 6639,
      "fqy": 6640,
      "fshg38": 6641,
      "fartiart": 6642,
      "gladi": 6643,
      "kagiyama": 6644,
      "knowledge": 6645,
      "o223": 6646,
      "rhodes": 6647,
      "sirius": 6648,
      "uimss": 6649,
      "uwabaki": 6650,
      "ubisoft": 6651,
      "wraith": 6652,
      "xinuo223": 6653,
      "erlkonig": 6654,
      "logistics": 6655,
      "shaft": 6656,
      "oubachiago": 6657,
      "attorney": 6658,
      "hooooooooji10": 6659,
      "rafaelaaa": 6660,
      "imminent": 6661,
      "impossible": 6662,
      "ammunition": 6663,
      "nomu103": 6664,
      "seasons": 6665,
      "miquella": 6666,
      "mikun109323": 6667,
      "heavy": 6668,
      "bowstringsmall": 6669,
      "illumi999": 6670,
      "lazool": 6671,
      "uniunimikan": 6672,
      "discipline": 6673,
      "phoenotopia": 6674,
      "koinobori": 6675,
      "nahida": 6676,
      "fluorescent": 6677,
      "azigashimitor": 6678,
      "helicopter": 6679,
      "genderswap": 6680,
      "pixiv62888100": 6681,
      "danfango": 6682,
      "indecency": 6683,
      "glacier": 6684,
      "mikannokawa7008": 6685,
      "ptilopsis": 6686,
      "mitsudomoe": 6687,
      "sasaki1de0": 6688,
      "momokurianzu": 6689,
      "fshg3833": 6690,
      "hooooooooji1029": 6691,
      "azigashimitoru": 6692,
      "0l": 6693,
      "3f": 6694,
      "375": 6695,
      "3776": 6696,
      "4kla": 6697,
      "54": 6698,
      "659": 6699,
      "747": 6700,
      "826": 6701,
      "8000": 6702,
      "a1": 6703,
      "aine": 6704,
      "asp": 6705,
      "aob": 6706,
      "bones": 6707,
      "css": 6708,
      "cial": 6709,
      "ccul": 6710,
      "db": 6711,
      "dh": 6712,
      "dus": 6713,
      "dhi": 6714,
      "dore": 6715,
      "daka": 6716,
      "dala": 6717,
      "eg": 6718,
      "ema": 6719,
      "eping": 6720,
      "eura": 6721,
      "fta": 6722,
      "ficate": 6723,
      "fs4": 6724,
      "gent": 6725,
      "gree": 6726,
      "gag": 6727,
      "gly": 6728,
      "gach": 6729,
      "gane": 6730,
      "guts": 6731,
      "hil": 6732,
      "hout": 6733,
      "hilt": 6734,
      "hjong": 6735,
      "jia": 6736,
      "jira": 6737,
      "kv": 6738,
      "kor": 6739,
      "kku": 6740,
      "kina": 6741,
      "kote": 6742,
      "ltr": 6743,
      "mn": 6744,
      "mum": 6745,
      "mud": 6746,
      "mite": 6747,
      "mater": 6748,
      "mage": 6749,
      "mama": 6750,
      "mns": 6751,
      "matching": 6752,
      "mbodi": 6753,
      "nk": 6754,
      "nrays": 6755,
      "naka": 6756,
      "nora": 6757,
      "nero": 6758,
      "ov": 6759,
      "oval": 6760,
      "oxy": 6761,
      "ohisa": 6762,
      "pent": 6763,
      "pitch": 6764,
      "rout": 6765,
      "rence": 6766,
      "rbear": 6767,
      "sir": 6768,
      "sel": 6769,
      "sure": 6770,
      "sie": 6771,
      "saka": 6772,
      "smog": 6773,
      "tv": 6774,
      "tch": 6775,
      "tum": 6776,
      "tort": 6777,
      "tsit": 6778,
      "tuk": 6779,
      "talu": 6780,
      "tfta": 6781,
      "ution": 6782,
      "urot": 6783,
      "vet": 6784,
      "vice": 6785,
      "wig": 6786,
      "wata": 6787,
      "xu": 6788,
      "xion": 6789,
      "yat": 6790,
      "yarn": 6791,
      "yudai": 6792,
      "yorigami": 6793,
      "zaku": 6794,
      "zhan": 6795,
      "ining": 6796,
      "erer": 6797,
      "erie": 6798,
      "erlen": 6799,
      "lobel": 6800,
      "lotion": 6801,
      "orion": 6802,
      "ando": 6803,
      "anod": 6804,
      "anya": 6805,
      "ancal": 6806,
      "enai": 6807,
      "enju": 6808,
      "reve": 6809,
      "reina": 6810,
      "republic": 6811,
      "recoil": 6812,
      "arca": 6813,
      "arna": 6814,
      "aragi": 6815,
      "arrot": 6816,
      "shy": 6817,
      "shoun": 6818,
      "shire": 6819,
      "shaku": 6820,
      "shige": 6821,
      "shatter": 6822,
      "has": 6823,
      "hata": 6824,
      "igo": 6825,
      "igami": 6826,
      "igumi": 6827,
      "iginu": 6828,
      "igatte": 6829,
      "ouki": 6830,
      "oustic": 6831,
      "onti": 6832,
      "onom": 6833,
      "ongy": 6834,
      "onashi": 6835,
      "cky": 6836,
      "stap": 6837,
      "stamp": 6838,
      "stalk": 6839,
      "stitch": 6840,
      "stran": 6841,
      "aling": 6842,
      "alide": 6843,
      "scor": 6844,
      "bliz": 6845,
      "blender": 6846,
      "its": 6847,
      "itri": 6848,
      "ituno": 6849,
      "roku": 6850,
      "illion": 6851,
      "hobbit": 6852,
      "hodaka": 6853,
      "rass": 6854,
      "rach": 6855,
      "raito": 6856,
      "ragl": 6857,
      "clot": 6858,
      "ighing": 6859,
      "char": 6860,
      "chang": 6861,
      "chill": 6862,
      "chari": 6863,
      "chongy": 6864,
      "oton": 6865,
      "otoko": 6866,
      "umami": 6867,
      "cool": 6868,
      "coaster": 6869,
      "tament": 6870,
      "taki": 6871,
      "tapest": 6872,
      "idon": 6873,
      "udius": 6874,
      "unsheath": 6875,
      "unconvention": 6876,
      "lonely": 6877,
      "weiss": 6878,
      "weighing": 6879,
      "soph": 6880,
      "iments": 6881,
      "tificate": 6882,
      "okari": 6883,
      "okoro": 6884,
      "elis": 6885,
      "ayame": 6886,
      "amo": 6887,
      "amane": 6888,
      "amyg": 6889,
      "adin": 6890,
      "adder": 6891,
      "aduct": 6892,
      "nob": 6893,
      "nood": 6894,
      "noworld": 6895,
      "nozo": 6896,
      "noshiro": 6897,
      "whiteboard": 6898,
      "ric": 6899,
      "rix": 6900,
      "riki": 6901,
      "rikka": 6902,
      "florence": 6903,
      "sleep": 6904,
      "andal": 6905,
      "foo": 6906,
      "foam": 6907,
      "seg": 6908,
      "seo": 6909,
      "seish": 6910,
      "seele": 6911,
      "popop": 6912,
      "icent": 6913,
      "sunbur": 6914,
      "veen": 6915,
      "lisa": 6916,
      "lize": 6917,
      "pladder": 6918,
      "flowers": 6919,
      "toshi": 6920,
      "ryoku": 6921,
      "cep": 6922,
      "nightgown": 6923,
      "upright": 6924,
      "akiz": 6925,
      "akine": 6926,
      "akagi": 6927,
      "miwa": 6928,
      "misum": 6929,
      "miio": 6930,
      "miyuki": 6931,
      "miloe": 6932,
      "miclot": 6933,
      "musou": 6934,
      "mutsu": 6935,
      "oper": 6936,
      "grace": 6937,
      "grabb": 6938,
      "gradu": 6939,
      "nequin": 6940,
      "masa": 6941,
      "mahjong": 6942,
      "moose": 6943,
      "mofum": 6944,
      "defen": 6945,
      "hatate": 6946,
      "sushi": 6947,
      "suko": 6948,
      "succul": 6949,
      "fiery": 6950,
      "medic": 6951,
      "afune": 6952,
      "bao": 6953,
      "hermes": 6954,
      "syring": 6955,
      "sasum": 6956,
      "sacli": 6957,
      "savanna": 6958,
      "rushia": 6959,
      "usion": 6960,
      "theater": 6961,
      "houra": 6962,
      "lah": 6963,
      "law": 6964,
      "laven": 6965,
      "isi": 6966,
      "isora": 6967,
      "worm": 6968,
      "reflex": 6969,
      "fading": 6970,
      "shinji": 6971,
      "futa": 6972,
      "otsumami": 6973,
      "dyna": 6974,
      "brun": 6975,
      "bookstore": 6976,
      "impaled": 6977,
      "serial": 6978,
      "serpent": 6979,
      "caaaa": 6980,
      "ware": 6981,
      "wacca": 6982,
      "kaen": 6983,
      "ka92": 6984,
      "kaidou": 6985,
      "kaonashi": 6986,
      "peri": 6987,
      "periments": 6988,
      "quisher": 6989,
      "asaka": 6990,
      "as4kla": 6991,
      "inted": 6992,
      "obon": 6993,
      "obeli": 6994,
      "leafa": 6995,
      "ikou": 6996,
      "ikari": 6997,
      "conduct": 6998,
      "paris": 6999,
      "onoway": 7000,
      "onomichi": 7001,
      "pew": 7002,
      "peak": 7003,
      "ftone": 7004,
      "yuzuri": 7005,
      "ireko": 7006,
      "yajuu": 7007,
      "yahari": 7008,
      "crossbones": 7009,
      "lipstick": 7010,
      "hib": 7011,
      "hika": 7012,
      "foodieg": 7013,
      "carp": 7014,
      "carnation": 7015,
      "snowball": 7016,
      "moto": 7017,
      "kneepit": 7018,
      "pip": 7019,
      "fallen": 7020,
      "chihuri": 7021,
      "chaps": 7022,
      "meta": 7023,
      "underworld": 7024,
      "underbust": 7025,
      "minoriko": 7026,
      "sweeping": 7027,
      "downsca": 7028,
      "huo": 7029,
      "boxed": 7030,
      "arabian": 7031,
      "giyuu": 7032,
      "million": 7033,
      "mana": 7034,
      "mannequin": 7035,
      "calvin": 7036,
      "sumireko": 7037,
      "barn": 7038,
      "barber": 7039,
      "machigatte": 7040,
      "deter": 7041,
      "nix": 7042,
      "amaurot": 7043,
      "expo": 7044,
      "exarch": 7045,
      "experiments": 7046,
      "produ": 7047,
      "lesscat": 7048,
      "dren": 7049,
      "visor": 7050,
      "chosen": 7051,
      "shepher": 7052,
      "soup": 7053,
      "gare": 7054,
      "children": 7055,
      "pillarboxed": 7056,
      "holograph": 7057,
      "chained": 7058,
      "cheshire": 7059,
      "ios": 7060,
      "corrup": 7061,
      "mirai": 7062,
      "briar": 7063,
      "plateau": 7064,
      "vanquisher": 7065,
      "iroha": 7066,
      "sene": 7067,
      "senbon": 7068,
      "submarine": 7069,
      "shimura": 7070,
      "maga": 7071,
      "swimwear": 7072,
      "crypha": 7073,
      "halftone": 7074,
      "special": 7075,
      "2023": 7076,
      "luicent": 7077,
      "tomboy": 7078,
      "silmar": 7079,
      "pubic": 7080,
      "pushing": 7081,
      "puzzle": 7082,
      "porter": 7083,
      "portgas": 7084,
      "stepladder": 7085,
      "apocrypha": 7086,
      "endlesscat": 7087,
      "eleven": 7088,
      "sidelight": 7089,
      "agasa": 7090,
      "flagpole": 7091,
      "certificate": 7092,
      "six": 7093,
      "auji": 7094,
      "chigalide": 7095,
      "agifor": 7096,
      "tyard": 7097,
      "buttress": 7098,
      "lifted": 7099,
      "dess": 7100,
      "lappy": 7101,
      "valfel": 7102,
      "hyde": 7103,
      "keychain": 7104,
      "yukine": 7105,
      "clay": 7106,
      "mystia": 7107,
      "yanagifor": 7108,
      "baten": 7109,
      "parka": 7110,
      "ghostblade": 7111,
      "ashley": 7112,
      "tabihito": 7113,
      "sanxian": 7114,
      "skeletal": 7115,
      "imuchi": 7116,
      "himekaidou": 7117,
      "marble": 7118,
      "pinecone": 7119,
      "taro": 7120,
      "izawa": 7121,
      "kago": 7122,
      "kagaku": 7123,
      "tanlines": 7124,
      "tanuki": 7125,
      "tanaka": 7126,
      "tanjirou": 7127,
      "viaduct": 7128,
      "2473": 7129,
      "palms": 7130,
      "108": 7131,
      "10659": 7132,
      "lovecome": 7133,
      "acoustic": 7134,
      "claudius": 7135,
      "nerv": 7136,
      "godzilla": 7137,
      "goddess": 7138,
      "hidari": 7139,
      "222": 7140,
      "uruha": 7141,
      "bonnet": 7142,
      "megumin": 7143,
      "nononon": 7144,
      "nagito": 7145,
      "linear": 7146,
      "eggplant": 7147,
      "destiny": 7148,
      "kariginu": 7149,
      "yamamoto": 7150,
      "drawers": 7151,
      "abyssal": 7152,
      "wanderer": 7153,
      "234": 7154,
      "hamster": 7155,
      "litra": 7156,
      "miyabi": 7157,
      "wufs4": 7158,
      "yamaha": 7159,
      "gordo": 7160,
      "kitauji": 7161,
      "pinwheel": 7162,
      "mallet": 7163,
      "nanmu": 7164,
      "574": 7165,
      "victor": 7166,
      "kazuma": 7167,
      "badge": 7168,
      "komaru": 7169,
      "7724": 7170,
      "7733": 7171,
      "ei9": 7172,
      "kamisama": 7173,
      "jetpack": 7174,
      "nakiri": 7175,
      "nakagawa": 7176,
      "glare": 7177,
      "norino": 7178,
      "tearing": 7179,
      "reindeer": 7180,
      "shiburi": 7181,
      "pickaxe": 7182,
      "speedpaint": 7183,
      "tsukihime": 7184,
      "mod3": 7185,
      "priest": 7186,
      "prison": 7187,
      "komaeda": 7188,
      "xyun": 7189,
      "explosive": 7190,
      "179": 7191,
      "testament": 7192,
      "263f": 7193,
      "freecss": 7194,
      "kaitos": 7195,
      "0209": 7196,
      "kotori": 7197,
      "psycho": 7198,
      "quiet": 7199,
      "luozi": 7200,
      "hammerhead": 7201,
      "teardrops": 7202,
      "0312": 7203,
      "bigrbear": 7204,
      "finder": 7205,
      "trophy": 7206,
      "isabel": 7207,
      "sarong": 7208,
      "0716": 7209,
      "hoshimachi": 7210,
      "disembodi": 7211,
      "monado": 7212,
      "john": 7213,
      "numbered": 7214,
      "cruiser": 7215,
      "fumetsu": 7216,
      "higuchi": 7217,
      "lified": 7218,
      "kusakabeworks": 7219,
      "onigiri": 7220,
      "rooster": 7221,
      "censored": 7222,
      "kisaragi": 7223,
      "sagari": 7224,
      "yukinoshita": 7225,
      "latek": 7226,
      "mortar": 7227,
      "thomas": 7228,
      "tsurime": 7229,
      "grenade": 7230,
      "akihare": 7231,
      "kerosene": 7232,
      "adventure": 7233,
      "macaronk": 7234,
      "strand": 7235,
      "synthes": 7236,
      "pulley": 7237,
      "courtyard": 7238,
      "hayashi": 7239,
      "mushishi": 7240,
      "viewfinder": 7241,
      "propeller": 7242,
      "bleeding": 7243,
      "iwakura": 7244,
      "license": 7245,
      "inoue": 7246,
      "lorelei": 7247,
      "arborlune": 7248,
      "listening": 7249,
      "plugsuit": 7250,
      "tomioka": 7251,
      "koyogi": 7252,
      "joanne": 7253,
      "steeple": 7254,
      "warrior": 7255,
      "valentine": 7256,
      "doughnut": 7257,
      "simplified": 7258,
      "timbered": 7259,
      "3753776": 7260,
      "eurasian": 7261,
      "gachimuchi": 7262,
      "houtei9": 7263,
      "ltr0312": 7264,
      "oxygen": 7265,
      "ohisashiburi": 7266,
      "siege": 7267,
      "talulah": 7268,
      "tftady": 7269,
      "erlenmeyer": 7270,
      "lobelia": 7271,
      "anodan": 7272,
      "ancalagon": 7273,
      "revealing": 7274,
      "arcaea": 7275,
      "arnaerr": 7276,
      "shounen": 7277,
      "stranding": 7278,
      "itunohika": 7279,
      "rachel": 7280,
      "raglan": 7281,
      "chongyun": 7282,
      "tapestry": 7283,
      "unsheathing": 7284,
      "unconventional": 7285,
      "elisia": 7286,
      "amygdala": 7287,
      "nozomi": 7288,
      "seishun": 7289,
      "popopoka": 7290,
      "sunburst": 7291,
      "akizakura": 7292,
      "misumigumi": 7293,
      "miloecute": 7294,
      "graduation": 7295,
      "mofumofu": 7296,
      "succulent": 7297,
      "syringe": 7298,
      "sasumata": 7299,
      "saclia": 7300,
      "savannah": 7301,
      "lavender": 7302,
      "caaaaarrot": 7303,
      "wacca005": 7304,
      "obelisk": 7305,
      "conducting": 7306,
      "yuzuriha": 7307,
      "kneepits": 7308,
      "downscaled": 7309,
      "machigatteiru": 7310,
      "shepherd": 7311,
      "holographic": 7312,
      "silmarillion": 7313,
      "sidelighting": 7314,
      "chigalidepoi": 7315,
      "valfelto": 7316,
      "106592473": 7317,
      "nononononoway": 7318,
      "wufs4222": 7319,
      "disembodied": 7320,
      "synthesizer": 7321,
      "37537768": 7322,
      "!)": 7323,
      "113": 7324,
      "2rix": 7325,
      "345": 7326,
      "323": 7327,
      "44": 7328,
      "49": 7329,
      "4x": 7330,
      "4gate": 7331,
      "52": 7332,
      "546": 7333,
      "543": 7334,
      "65": 7335,
      "70": 7336,
      "7j": 7337,
      "787": 7338,
      "82": 7339,
      "915": 7340,
      "@,": 7341,
      "a7": 7342,
      "ashin": 7343,
      "aio": 7344,
      "abeet": 7345,
      "bt": 7346,
      "bil": 7347,
      "bark": 7348,
      "bis": 7349,
      "bation": 7350,
      "bump": 7351,
      "bimo": 7352,
      "cay": 7353,
      "cri": 7354,
      "cie": 7355,
      "caster": 7356,
      "cron": 7357,
      "clar": 7358,
      "czy": 7359,
      "criss": 7360,
      "dc": 7361,
      "dry": 7362,
      "dmit": 7363,
      "eing": 7364,
      "eel": 7365,
      "eff": 7366,
      "egon": 7367,
      "emet": 7368,
      "fd": 7369,
      "fy": 7370,
      "fat": 7371,
      "fil": 7372,
      "fun": 7373,
      "fap": 7374,
      "fume": 7375,
      "fell": 7376,
      "fumi": 7377,
      "fkey": 7378,
      "frier": 7379,
      "fcc": 7380,
      "gne": 7381,
      "gis": 7382,
      "ggi": 7383,
      "gari": 7384,
      "gav": 7385,
      "gaku": 7386,
      "g36": 7387,
      "g92": 7388,
      "g103": 7389,
      "gvd": 7390,
      "hr": 7391,
      "hw": 7392,
      "hane": 7393,
      "hitch": 7394,
      "hds": 7395,
      "higa": 7396,
      "hideo": 7397,
      "hfry": 7398,
      "hres": 7399,
      "iso": 7400,
      "ias": 7401,
      "iji": 7402,
      "iva": 7403,
      "ichim": 7404,
      "ibara": 7405,
      "jg": 7406,
      "jian": 7407,
      "jima": 7408,
      "k1": 7409,
      "kud": 7410,
      "kent": 7411,
      "kiz": 7412,
      "kall": 7413,
      "kame": 7414,
      "kpie": 7415,
      "kodama": 7416,
      "k000": 7417,
      "kappa": 7418,
      "lg": 7419,
      "ln": 7420,
      "lx": 7421,
      "lfac": 7422,
      "lfing": 7423,
      "ms": 7424,
      "mx": 7425,
      "mack": 7426,
      "mim": 7427,
      "march": 7428,
      "mble": 7429,
      "mata": 7430,
      "m20": 7431,
      "mumei": 7432,
      "n3": 7433,
      "nud": 7434,
      "null": 7435,
      "nano": 7436,
      "ndus": 7437,
      "oya": 7438,
      "osaki": 7439,
      "osaur": 7440,
      "osamu": 7441,
      "plo": 7442,
      "press": 7443,
      "pus": 7444,
      "puff": 7445,
      "psi": 7446,
      "pdb": 7447,
      "pndus": 7448,
      "qr": 7449,
      "qlo": 7450,
      "qveen": 7451,
      "rr": 7452,
      "ride": 7453,
      "ranguage": 7454,
      "rhy": 7455,
      "ritsu": 7456,
      "renge": 7457,
      "rpk": 7458,
      "sut": 7459,
      "saf": 7460,
      "sous": 7461,
      "sane": 7462,
      "sara": 7463,
      "sino": 7464,
      "sonoz": 7465,
      "tir": 7466,
      "tit": 7467,
      "tery": 7468,
      "teng": 7469,
      "tart": 7470,
      "tsum": 7471,
      "tatsu": 7472,
      "thai": 7473,
      "titan": 7474,
      "tatsuya": 7475,
      "uri": 7476,
      "ube": 7477,
      "uyuni": 7478,
      "vod": 7479,
      "vink": 7480,
      "v7724": 7481,
      "v4x": 7482,
      "vgvd": 7483,
      "waku": 7484,
      "wend": 7485,
      "wlop": 7486,
      "xim": 7487,
      "x04": 7488,
      "xhds": 7489,
      "yd": 7490,
      "yn": 7491,
      "ys": 7492,
      "yot": 7493,
      "youn": 7494,
      "ycles": 7495,
      "yaki": 7496,
      "yhar": 7497,
      "yfre": 7498,
      "zay": 7499,
      "zatsu": 7500,
      "zai": 7501,
      "zhang": 7502,
      "zumo": 7503,
      "intra": 7504,
      "inari": 7505,
      "inata": 7506,
      "invinc": 7507,
      "intake": 7508,
      "irin": 7509,
      "iragi": 7510,
      "ering": 7511,
      "erous": 7512,
      "erman": 7513,
      "erature": 7514,
      "loun": 7515,
      "lovel": 7516,
      "orot": 7517,
      "annin": 7518,
      "enry": 7519,
      "ingale": 7520,
      "reth": 7521,
      "reis": 7522,
      "reze": 7523,
      "recl": 7524,
      "respir": 7525,
      "lean": 7526,
      "leon": 7527,
      "lesta": 7528,
      "lex04": 7529,
      "arl": 7530,
      "aran": 7531,
      "arena": 7532,
      "shout": 7533,
      "shama": 7534,
      "shagu": 7535,
      "shards": 7536,
      "hasu": 7537,
      "havo": 7538,
      "haze": 7539,
      "hajime": 7540,
      "hawai": 7541,
      "iget": 7542,
      "igator": 7543,
      "oup": 7544,
      "oumae": 7545,
      "skating": 7546,
      "onbi": 7547,
      "onoka": 7548,
      "onbashir": 7549,
      "att": 7550,
      "atto": 7551,
      "atane": 7552,
      "atama": 7553,
      "atani": 7554,
      "attic": 7555,
      "stout": 7556,
      "stray": 7557,
      "stnova": 7558,
      "alin": 7559,
      "allies": 7560,
      "alisa": 7561,
      "sch": 7562,
      "blr": 7563,
      "bling": 7564,
      "itis": 7565,
      "doo": 7566,
      "dose": 7567,
      "dofre": 7568,
      "hoe": 7569,
      "hoo": 7570,
      "hock": 7571,
      "hoso": 7572,
      "home": 7573,
      "hoshig": 7574,
      "homura": 7575,
      "hophyll": 7576,
      "ras": 7577,
      "rase": 7578,
      "rako": 7579,
      "ragon": 7580,
      "clown": 7581,
      "bop": 7582,
      "bogg": 7583,
      "edel": 7584,
      "ssil": 7585,
      "ssss": 7586,
      "ssol": 7587,
      "chik": 7588,
      "chore": 7589,
      "chiki": 7590,
      "chong": 7591,
      "chester": 7592,
      "etta": 7593,
      "etern": 7594,
      "umishima": 7595,
      "umisora": 7596,
      "cocoon": 7597,
      "tac": 7598,
      "tasuki": 7599,
      "tagram": 7600,
      "taegon": 7601,
      "idare": 7602,
      "udi": 7603,
      "lone": 7604,
      "apro": 7605,
      "weiz": 7606,
      "week": 7607,
      "weasel": 7608,
      "sobu": 7609,
      "imperi": 7610,
      "vesto": 7611,
      "tik": 7612,
      "tian": 7613,
      "tiered": 7614,
      "eya": 7615,
      "eyuan": 7616,
      "okit": 7617,
      "okame": 7618,
      "okara": 7619,
      "eliza": 7620,
      "anth": 7621,
      "antha": 7622,
      "ayo": 7623,
      "ayue": 7624,
      "ayaru": 7625,
      "amake": 7626,
      "amana": 7627,
      "among": 7628,
      "buri": 7629,
      "bucks": 7630,
      "buruma": 7631,
      "think": 7632,
      "thong": 7633,
      "adel": 7634,
      "adine": 7635,
      "whit": 7636,
      "noct": 7637,
      "noeyebro": 7638,
      "noelle": 7639,
      "nohide": 7640,
      "floe": 7641,
      "flora": 7642,
      "andxy": 7643,
      "fossil": 7644,
      "aterina": 7645,
      "lightsaber": 7646,
      "plectrum": 7647,
      "sex": 7648,
      "seum": 7649,
      "sever": 7650,
      "pocar": 7651,
      "pods": 7652,
      "ager": 7653,
      "waters": 7654,
      "ican": 7655,
      "icator": 7656,
      "lllion": 7657,
      "brodie": 7658,
      "lie": 7659,
      "liwend": 7660,
      "livesto": 7661,
      "dayu": 7662,
      "daylight": 7663,
      "toggles": 7664,
      "tojim": 7665,
      "tobogg": 7666,
      "winchester": 7667,
      "astructure": 7668,
      "ryuse": 7669,
      "nightingale": 7670,
      "natta": 7671,
      "natsuki": 7672,
      "urn": 7673,
      "urer": 7674,
      "urbation": 7675,
      "akane": 7676,
      "akuma": 7677,
      "akaneko": 7678,
      "akagami": 7679,
      "akafune": 7680,
      "miho": 7681,
      "mifa": 7682,
      "miyam": 7683,
      "mishagu": 7684,
      "ford": 7685,
      "grazing": 7686,
      "beidou": 7687,
      "bebop": 7688,
      "ff7": 7689,
      "starbucks": 7690,
      "helesta": 7691,
      "masu": 7692,
      "moo": 7693,
      "moat": 7694,
      "moori": 7695,
      "mogun": 7696,
      "moshita": 7697,
      "iness": 7698,
      "inesnow": 7699,
      "frostnova": 7700,
      "planting": 7701,
      "deshi": 7702,
      "decay": 7703,
      "hatter": 7704,
      "widea7": 7705,
      "pavil": 7706,
      "utan": 7707,
      "utatane": 7708,
      "shotgun": 7709,
      "horikou": 7710,
      "sura": 7711,
      "suto": 7712,
      "sugu": 7713,
      "suga": 7714,
      "suzuki": 7715,
      "subaru": 7716,
      "fio": 7717,
      "afri": 7718,
      "baof": 7719,
      "illustri": 7720,
      "illusion": 7721,
      "terrace": 7722,
      "headless": 7723,
      "headpat": 7724,
      "sasa": 7725,
      "saus": 7726,
      "saito": 7727,
      "sasak": 7728,
      "tei": 7729,
      "handed": 7730,
      "aironoka": 7731,
      "archon": 7732,
      "indicator": 7733,
      "rule": 7734,
      "ruby": 7735,
      "usou": 7736,
      "namamake": 7737,
      "houshou": 7738,
      "fleur": 7739,
      "flexion": 7740,
      "gekoku": 7741,
      "laoda": 7742,
      "window12": 7743,
      "shoichi": 7744,
      "railways": 7745,
      "melo": 7746,
      "memori": 7747,
      "member": 7748,
      "mechari": 7749,
      "isw": 7750,
      "fanny": 7751,
      "fait": 7752,
      "tractor": 7753,
      "shinn": 7754,
      "shinryoku": 7755,
      "jeep": 7756,
      "fushim": 7757,
      "greenqveen": 7758,
      "horizontal": 7759,
      "shii": 7760,
      "shier": 7761,
      "shien": 7762,
      "shiokara": 7763,
      "ukun": 7764,
      "ukrain": 7765,
      "bronya": 7766,
      "brando": 7767,
      "omaru": 7768,
      "omona": 7769,
      "setsu": 7770,
      "france": 7771,
      "books": 7772,
      "serizawa": 7773,
      "spill": 7774,
      "sphophyll": 7775,
      "casing": 7776,
      "cavator": 7777,
      "casino": 7778,
      "swords": 7779,
      "waiting": 7780,
      "washan": 7781,
      "kashimura": 7782,
      "ousel": 7783,
      "shable": 7784,
      "shasha": 7785,
      "peror": 7786,
      "clef": 7787,
      "crotch": 7788,
      "asia": 7789,
      "overdose": 7790,
      "feigi": 7791,
      "ikano": 7792,
      "condu": 7793,
      "fishbowl": 7794,
      "disk": 7795,
      "dido": 7796,
      "diplo": 7797,
      "dissol": 7798,
      "achiki": 7799,
      "paru": 7800,
      "parrot": 7801,
      "parfait": 7802,
      "potter": 7803,
      "bridges": 7804,
      "peeing": 7805,
      "yui": 7806,
      "yuyu": 7807,
      "yuja": 7808,
      "venous": 7809,
      "phosphophyll": 7810,
      "drake": 7811,
      "petite": 7812,
      "kome": 7813,
      "kojo": 7814,
      "kodomo": 7815,
      "koakuma": 7816,
      "komoshita": 7817,
      "touching": 7818,
      "hichi": 7819,
      "histor": 7820,
      "hiiragi": 7821,
      "guan": 7822,
      "guil": 7823,
      "guweiz": 7824,
      "beth": 7825,
      "betabeet": 7826,
      "monaka": 7827,
      "carame": 7828,
      "carrier": 7829,
      "carousel": 7830,
      "nameless": 7831,
      "colosse": 7832,
      "papers": 7833,
      "woods": 7834,
      "born": 7835,
      "pippin": 7836,
      "piapro": 7837,
      "rainy": 7838,
      "gonzz": 7839,
      "gon2rix": 7840,
      "chiaki": 7841,
      "chikaze": 7842,
      "cham": 7843,
      "kuto": 7844,
      "kujou": 7845,
      "kiryu": 7846,
      "jiayue": 7847,
      "cancer": 7848,
      "suitenju": 7849,
      "gogo": 7850,
      "gocactus": 7851,
      "yoshida": 7852,
      "yohichi": 7853,
      "metric": 7854,
      "undertale": 7855,
      "creator": 7856,
      "bottle7": 7857,
      "darkness": 7858,
      "amei": 7859,
      "amemura": 7860,
      "arai": 7861,
      "ara1101": 7862,
      "bolg": 7863,
      "giving": 7864,
      "mani": 7865,
      "azure": 7866,
      "azumi": 7867,
      "ariyas": 7868,
      "iceberg": 7869,
      "bars": 7870,
      "barcode": 7871,
      "barrass": 7872,
      "itionism": 7873,
      "nico": 7874,
      "niidon": 7875,
      "exhib": 7876,
      "excavator": 7877,
      "stahl": 7878,
      "helping": 7879,
      "bishounen": 7880,
      "business": 7881,
      "kenja": 7882,
      "akiyama": 7883,
      "stereo": 7884,
      "intersection": 7885,
      "voe": 7886,
      "kanade": 7887,
      "kanji": 7888,
      "kaname": 7889,
      "kanjou": 7890,
      "keine": 7891,
      "keep": 7892,
      "joseph": 7893,
      "tonan": 7894,
      "akuya": 7895,
      "hakumei": 7896,
      "statd": 7897,
      "static": 7898,
      "holomy": 7899,
      "tug": 7900,
      "tucking": 7901,
      "witches": 7902,
      "inaeda": 7903,
      "bicycles": 7904,
      "basketball": 7905,
      "sling": 7906,
      "swiss": 7907,
      "cheer": 7908,
      "cheche": 7909,
      "ghun": 7910,
      "pentagram": 7911,
      "tenma": 7912,
      "tenshin": 7913,
      "tenpura": 7914,
      "cork": 7915,
      "click": 7916,
      "taihou": 7917,
      "ataeg": 7918,
      "honda": 7919,
      "honzuki": 7920,
      "akaisw": 7921,
      "turu": 7922,
      "reengirl": 7923,
      "1200": 7924,
      "1224": 7925,
      "istle": 7926,
      "screencap": 7927,
      "dismember": 7928,
      "kyar": 7929,
      "sparks": 7930,
      "maiden": 7931,
      "1359": 7932,
      "2015": 7933,
      "2017": 7934,
      "lucia": 7935,
      "wetsuit": 7936,
      "candlelight": 7937,
      "skeggi": 7938,
      "skev7724": 7939,
      "992": 7940,
      "114": 7941,
      "119": 7942,
      "embarrass": 7943,
      "areba": 7944,
      "ponta": 7945,
      "sickle": 7946,
      "katrina": 7947,
      "panp": 7948,
      "panel": 7949,
      "masaki": 7950,
      "dani": 7951,
      "heartsee": 7952,
      "engulfing": 7953,
      "cotan": 7954,
      "button": 7955,
      "zekle": 7956,
      "stopping": 7957,
      "valve": 7958,
      "takina": 7959,
      "hyxi": 7960,
      "key2": 7961,
      "yukoku": 7962,
      "yukoi": 7963,
      "clan": 7964,
      "clam": 7965,
      "949": 7966,
      "94456": 7967,
      "glunk": 7968,
      "dangerous": 7969,
      "ekaterina": 7970,
      "torany": 7971,
      "battery": 7972,
      "hanako": 7973,
      "hanamaru": 7974,
      "mikochi": 7975,
      "harry": 7976,
      "haruka": 7977,
      "hariken": 7978,
      "ashtray": 7979,
      "paladin": 7980,
      "silvertsuki": 7981,
      "shirako": 7982,
      "shirasa": 7983,
      "douji": 7984,
      "matsuno": 7985,
      "sanshoku": 7986,
      "bulbs": 7987,
      "mushoku": 7988,
      "cigar": 7989,
      "oo12": 7990,
      "2894456": 7991,
      "jouki": 7992,
      "joucho": 7993,
      "slicked": 7994,
      "marco": 7995,
      "marinesnow": 7996,
      "pineapple": 7997,
      "garlean": 7998,
      "tundra": 7999,
      "triforce": 8000,
      "hirose": 8001,
      "hirooka": 8002,
      "italy": 8003,
      "burns": 8004,
      "hinata": 8005,
      "tsug": 8006,
      "tsugu": 8007,
      "tsubasa": 8008,
      "tsukasa": 8009,
      "scared": 8010,
      "onico": 8011,
      "satou": 8012,
      "tani": 8013,
      "tanzi": 8014,
      "zi1359": 8015,
      "porforever": 8016,
      "porkpie": 8017,
      "radiant": 8018,
      "lifting": 8019,
      "okobo": 8020,
      "classic": 8021,
      "sharpen": 8022,
      "lingcod": 8023,
      "lingerie": 8024,
      "seiji": 8025,
      "claude": 8026,
      "ikasama": 8027,
      "dotz": 8028,
      "151": 8029,
      "evol": 8030,
      "cyber": 8031,
      "shizuku": 8032,
      "megami": 8033,
      "megastructure": 8034,
      "bathhouse": 8035,
      "naginata": 8036,
      "samidare": 8037,
      "koube": 8038,
      "kouki": 8039,
      "kuno": 8040,
      "yakitis": 8041,
      "cosmos": 8042,
      "jauni": 8043,
      "kuroshio": 8044,
      "suzuran": 8045,
      "dustpan": 8046,
      "literature": 8047,
      "salar": 8048,
      "saliva": 8049,
      "wuxian": 8050,
      "wushier": 8051,
      "yoshiki": 8052,
      "circlet": 8053,
      "kitty": 8054,
      "kurono": 8055,
      "malin": 8056,
      "nanaironoka": 8057,
      "melonsoda": 8058,
      "mordred": 8059,
      "osarada": 8060,
      "utachy": 8061,
      "kazari": 8062,
      "whiskey": 8063,
      "jingasa": 8064,
      "ensemble": 8065,
      "shigre": 8066,
      "choujin": 8067,
      "mikoto": 8068,
      "mikokoro": 8069,
      "mizuho": 8070,
      "forked": 8071,
      "forklift": 8072,
      "wenjun": 8073,
      "wenjie": 8074,
      "kazuya": 8075,
      "kazuharu": 8076,
      "niconico": 8077,
      "nagisa": 8078,
      "prehistor": 8079,
      "huifeng": 8080,
      "jetty": 8081,
      "convenient": 8082,
      "nakai": 8083,
      "dolphenry": 8084,
      "glaze": 8085,
      "norse": 8086,
      "reincarnation": 8087,
      "donkey": 8088,
      "pouring": 8089,
      "rubbing": 8090,
      "sportswear": 8091,
      "yueko": 8092,
      "guiyi": 8093,
      "mode": 8094,
      "romanov": 8095,
      "kuragare": 8096,
      "ginger": 8097,
      "weeds": 8098,
      "riegan": 8099,
      "needy": 8100,
      "kanoe": 8101,
      "asahi": 8102,
      "tags": 8103,
      "nikke": 8104,
      "takasaki": 8105,
      "fengcheche": 8106,
      "teto": 8107,
      "elysia": 8108,
      "kyouko": 8109,
      "kumiko": 8110,
      "connected": 8111,
      "evergreenqveen": 8112,
      "nnnj": 8113,
      "phantom": 8114,
      "corded": 8115,
      "kotono": 8116,
      "kamihari": 8117,
      "kamishirasa": 8118,
      "masturbation": 8119,
      "mitsuha": 8120,
      "nanashi": 8121,
      "pulling": 8122,
      "impression": 8123,
      "ginko": 8124,
      "zhubo": 8125,
      "toenail": 8126,
      "saria": 8127,
      "chisato": 8128,
      "empire": 8129,
      "ashiya": 8130,
      "m4a1": 8131,
      "toolbox": 8132,
      "momochy": 8133,
      "destroyed": 8134,
      "zygocactus": 8135,
      "howling": 8136,
      "chitose": 8137,
      "doraemon": 8138,
      "kokubun": 8139,
      "lunar": 8140,
      "osomatsu": 8141,
      "mauve": 8142,
      "shizuha": 8143,
      "kokichi": 8144,
      "prayer": 8145,
      "hoshiumisora": 8146,
      "seallllion": 8147,
      "mikio": 8148,
      "patterned": 8149,
      "bianka": 8150,
      "satoshy": 8151,
      "anninn": 8152,
      "national": 8153,
      "flappy": 8154,
      "tonghua": 8155,
      "1127": 8156,
      "durandal": 8157,
      "fusuma": 8158,
      "klein": 8159,
      "latex": 8160,
      "nyanyakitis": 8161,
      "grenadine": 8162,
      "akihabara": 8163,
      "adventurer": 8164,
      "dts": 8165,
      "jonghun": 8166,
      "kagehisa": 8167,
      "mgmg": 8168,
      "mamoru": 8169,
      "mandarin": 8170,
      "murata": 8171,
      "rossweiss": 8172,
      "codlx": 8173,
      "isonami": 8174,
      "poteto": 8175,
      "potetosarada": 8176,
      "yurayura": 8177,
      "daidai826": 8178,
      "shirayukihime": 8179,
      "victoria": 8180,
      "victories": 8181,
      ">:),": 8182,
      "awoino": 8183,
      "kururi": 8184,
      "myouren": 8185,
      "soundtube": 8186,
      "yakusoku": 8187,
      "rakkasei": 8188,
      "taurus": 8189,
      "whispy": 8190,
      "hatsuyuki": 8191,
      "ikegami": 8192,
      "empyrea": 8193,
      "griffin": 8194,
      "ludwig": 8195,
      "nirareba": 8196,
      "nagae": 8197,
      "slashing": 8198,
      "roboqlo": 8199,
      "colonnade": 8200,
      "redraw": 8201,
      "tofublock": 8202,
      "sarekoube": 8203,
      "namacotan": 8204,
      "fuyutoshi": 8205,
      "mononobe": 8206,
      "kusariuta": 8207,
      "gladiia": 8208,
      "heavyrain": 8209,
      "0l0l": 8210,
      "aobara1101": 8211,
      "doremifa": 8212,
      "materiel": 8213,
      "pitchfork": 8214,
      "siromona": 8215,
      "selch": 8216,
      "tumblr": 8217,
      "tortoise": 8218,
      "yatai": 8219,
      "shakujou": 8220,
      "shattered": 8221,
      "hataya": 8222,
      "stapler": 8223,
      "otonari": 8224,
      "cooler": 8225,
      "nobori": 8226,
      "noodles": 8227,
      "segment": 8228,
      "grabbing": 8229,
      "defense": 8230,
      "medicine": 8231,
      "warehouse": 8232,
      "kaenbyou": 8233,
      "calvinlex04": 8234,
      "detergent": 8235,
      "exposure": 8236,
      "corrupting": 8237,
      "magaoo12": 8238,
      "nervous": 8239,
      "7j543": 8240,
      "7875": 8241,
      "cronstatd": 8242,
      "dryer": 8243,
      "dmitry": 8244,
      "fellbeast": 8245,
      "frieren": 8246,
      "gavial": 8247,
      "hitchhiking": 8248,
      "hfrya": 8249,
      "hresvelg": 8250,
      "isometric": 8251,
      "kizuna": 8252,
      "kallen": 8253,
      "lfacras": 8254,
      "mxsoundtube": 8255,
      "m200": 8256,
      "nudity": 8257,
      "nanoha": 8258,
      "pdbhfrya": 8259,
      "pndusg103": 8260,
      "rhyme": 8261,
      "sousou": 8262,
      "sonozaki": 8263,
      "tirith": 8264,
      "title": 8265,
      "vodka": 8266,
      "vinkyfre": 8267,
      "vgvd7733": 8268,
      "wakusei": 8269,
      "xhds7875": 8270,
      "young": 8271,
      "yharnam": 8272,
      "zatsugami": 8273,
      "zumochi": 8274,
      "intravenous": 8275,
      "invincible": 8276,
      "lounge": 8277,
      "rethina": 8278,
      "reisalin": 8279,
      "reclining": 8280,
      "respirator": 8281,
      "shamare": 8282,
      "havoc": 8283,
      "igetarou": 8284,
      "onbashira": 8285,
      "alisaie": 8286,
      "dofresh": 8287,
      "hosoi": 8288,
      "hoshiguma": 8289,
      "rakoshirako": 8290,
      "edelgard": 8291,
      "chorefuji": 8292,
      "taegong92": 8293,
      "imperishable": 8294,
      "elizabeth": 8295,
      "thinking": 8296,
      "noeyebrow": 8297,
      "pocari": 8298,
      "liwendala": 8299,
      "livestock": 8300,
      "tojimari": 8301,
      "toboggan": 8302,
      "miyamizu": 8303,
      "mishaguji": 8304,
      "moorish": 8305,
      "mogunonbi": 8306,
      "pavilion": 8307,
      "baofandxy": 8308,
      "illustrious": 8309,
      "sausage": 8310,
      "sasakure": 8311,
      "gekokujou": 8312,
      "window1228": 8313,
      "memories": 8314,
      "fushimi": 8315,
      "ukrainian": 8316,
      "washanapple": 8317,
      "kashimuraito": 8318,
      "feigiap": 8319,
      "ikanoshiokara": 8320,
      "conductor": 8321,
      "diploma": 8322,
      "phosphophyllite": 8323,
      "kojomi": 8324,
      "caramelo": 8325,
      "colosseum": 8326,
      "ariyasiki": 8327,
      "niidonroad": 8328,
      "exhibitionism": 8329,
      "holomyth": 8330,
      "ataegina": 8331,
      "dismemberment": 8332,
      "skeggiold": 8333,
      "embarrassed": 8334,
      "heartseek000": 8335,
      "zeklewa": 8336,
      "yukoiwase": 8337,
      "toranyun": 8338,
      "hanako151": 8339,
      "2894456992": 8340,
      "tanziya": 8341,
      "zi13591": 8342,
      "ikasamahideo": 8343,
      "nanaironokabi": 8344,
      "nnnjpg": 8345,
      "kamishirasawa": 8346,
      "nyanyakitisiro": 8347,
      "rossweisse": 8348,
      "codlxcold": 8349,
      "potetosarada123": 8350,
      "calvinlex049": 8351,
      "(,": 8352,
      "..": 8353,
      "059": 8354,
      "159": 8355,
      "238": 8356,
      "2949": 8357,
      "37": 8358,
      "3e": 8359,
      "41": 8360,
      "4ma": 8361,
      "4me": 8362,
      "51": 8363,
      "53": 8364,
      "510": 8365,
      "531": 8366,
      "5574": 8367,
      "620": 8368,
      "658": 8369,
      "74": 8370,
      "79": 8371,
      "731": 8372,
      "83": 8373,
      "85": 8374,
      "808": 8375,
      "819": 8376,
      "=,": 8377,
      "a2": 8378,
      "ain": 8379,
      "ading": 8380,
      "abu": 8381,
      "aure": 8382,
      "aang": 8383,
      "aba": 8384,
      "acro": 8385,
      "aeth": 8386,
      "aigu": 8387,
      "awada": 8388,
      "a77": 8389,
      "a123": 8390,
      "beng": 8391,
      "bard": 8392,
      "bies": 8393,
      "bhin": 8394,
      "bira": 8395,
      "cm": 8396,
      "cv": 8397,
      "cum": 8398,
      "cred": 8399,
      "cair": 8400,
      "crum": 8401,
      "cpu": 8402,
      "count": 8403,
      "ctale": 8404,
      "dg": 8405,
      "dum": 8406,
      "date": 8407,
      "dire": 8408,
      "d3e": 8409,
      "ez": 8410,
      "eve": 8411,
      "eod": 8412,
      "eur": 8413,
      "eken": 8414,
      "eks": 8415,
      "epic": 8416,
      "emiya": 8417,
      "eichi": 8418,
      "fn": 8419,
      "fay": 8420,
      "fort": 8421,
      "fast": 8422,
      "fter": 8423,
      "fying": 8424,
      "fette": 8425,
      "gn": 8426,
      "gest": 8427,
      "gart": 8428,
      "gyu": 8429,
      "gdat": 8430,
      "hs": 8431,
      "hen": 8432,
      "hie": 8433,
      "heng": 8434,
      "hart": 8435,
      "hda": 8436,
      "hino": 8437,
      "iq": 8438,
      "iding": 8439,
      "ifr": 8440,
      "iwa": 8441,
      "ibar": 8442,
      "ipad": 8443,
      "iws": 8444,
      "iila": 8445,
      "ibby": 8446,
      "jig": 8447,
      "jit": 8448,
      "jud": 8449,
      "jli": 8450,
      "jya": 8451,
      "jji": 8452,
      "jinn": 8453,
      "kr": 8454,
      "kap": 8455,
      "kang": 8456,
      "kie": 8457,
      "kik": 8458,
      "kane": 8459,
      "kmy": 8460,
      "kaker": 8461,
      "krack": 8462,
      "ketsu": 8463,
      "kesa": 8464,
      "k0n": 8465,
      "lind": 8466,
      "lila": 8467,
      "lute": 8468,
      "mig": 8469,
      "mcle": 8470,
      "math": 8471,
      "mdr": 8472,
      "more": 8473,
      "moku": 8474,
      "manga": 8475,
      "nen": 8476,
      "nig": 8477,
      "nes": 8478,
      "nape": 8479,
      "nian": 8480,
      "nia": 8481,
      "niao": 8482,
      "n1127": 8483,
      "o3": 8484,
      "oer": 8485,
      "oas": 8486,
      "owo": 8487,
      "oono": 8488,
      "ocho": 8489,
      "osw": 8490,
      "ooka": 8491,
      "o25": 8492,
      "ohazard": 8493,
      "pso": 8494,
      "pand": 8495,
      "ppo": 8496,
      "phe": 8497,
      "pion": 8498,
      "pring": 8499,
      "price": 8500,
      "pitsu": 8501,
      "pako": 8502,
      "punk": 8503,
      "qa": 8504,
      "qin": 8505,
      "qilin": 8506,
      "rha": 8507,
      "rid": 8508,
      "roun": 8509,
      "rhul": 8510,
      "ratch": 8511,
      "rena": 8512,
      "rude": 8513,
      "ranger": 8514,
      "sb": 8515,
      "sf": 8516,
      "south": 8517,
      "sone": 8518,
      "sony": 8519,
      "satsu": 8520,
      "siki": 8521,
      "sagi": 8522,
      "saya": 8523,
      "slope": 8524,
      "sbee": 8525,
      "tk": 8526,
      "tn": 8527,
      "tha": 8528,
      "tigh": 8529,
      "tate": 8530,
      "tari": 8531,
      "tell": 8532,
      "taru": 8533,
      "tsuno": 8534,
      "tinted": 8535,
      "t0716": 8536,
      "tseum": 8537,
      "ua": 8538,
      "uo": 8539,
      "uu": 8540,
      "ule": 8541,
      "uun": 8542,
      "uto": 8543,
      "ushi": 8544,
      "ushio": 8545,
      "ujim": 8546,
      "usuko": 8547,
      "vr": 8548,
      "vid": 8549,
      "vlad": 8550,
      "vul": 8551,
      "vitation": 8552,
      "v5574": 8553,
      "wal": 8554,
      "wam": 8555,
      "wate": 8556,
      "waka": 8557,
      "wano": 8558,
      "wrap": 8559,
      "xen": 8560,
      "xie": 8561,
      "yes": 8562,
      "yans": 8563,
      "yart": 8564,
      "yake": 8565,
      "ype": 8566,
      "yafuku": 8567,
      "yoku": 8568,
      "yako": 8569,
      "ydd": 8570,
      "yuno": 8571,
      "zal": 8572,
      "zun": 8573,
      "zol": 8574,
      "zya": 8575,
      "zation": 8576,
      "zhon": 8577,
      "infl": 8578,
      "infin": 8579,
      "ires": 8580,
      "irod": 8581,
      "irai": 8582,
      "iryou": 8583,
      "irling": 8584,
      "irys": 8585,
      "eren": 8586,
      "erup": 8587,
      "erhu": 8588,
      "erio": 8589,
      "lost": 8590,
      "orang": 8591,
      "orph": 8592,
      "ordi": 8593,
      "organ": 8594,
      "anun": 8595,
      "anka": 8596,
      "annot": 8597,
      "anika": 8598,
      "anci": 8599,
      "aniku": 8600,
      "anquin": 8601,
      "ened": 8602,
      "enmaid": 8603,
      "encer": 8604,
      "enzo": 8605,
      "enpitsu": 8606,
      "reg": 8607,
      "redo": 8608,
      "rect": 8609,
      "rever": 8610,
      "restra": 8611,
      "recor": 8612,
      "resized": 8613,
      "respa": 8614,
      "recycle": 8615,
      "reverse": 8616,
      "reunion": 8617,
      "reborn": 8618,
      "leop": 8619,
      "leine": 8620,
      "lebon": 8621,
      "levitation": 8622,
      "arat": 8623,
      "aric": 8624,
      "ariz": 8625,
      "arter": 8626,
      "arte": 8627,
      "ariko": 8628,
      "arona": 8629,
      "shit": 8630,
      "shite": 8631,
      "shto": 8632,
      "shapon": 8633,
      "shka": 8634,
      "shuten": 8635,
      "sherman": 8636,
      "haq": 8637,
      "hase": 8638,
      "hato": 8639,
      "hamu": 8640,
      "haik": 8641,
      "haust": 8642,
      "hada": 8643,
      "igal": 8644,
      "ouma": 8645,
      "skate": 8646,
      "esw": 8647,
      "esar": 8648,
      "esome": 8649,
      "onita": 8650,
      "ongae": 8651,
      "atsum": 8652,
      "hairdressing": 8653,
      "hairpods": 8654,
      "cker": 8655,
      "stir": 8656,
      "stial": 8657,
      "aldo": 8658,
      "alfa": 8659,
      "scle": 8660,
      "scep": 8661,
      "scratch": 8662,
      "blaid": 8663,
      "iter": 8664,
      "itama": 8665,
      "itaka": 8666,
      "do6": 8667,
      "dood": 8668,
      "dober": 8669,
      "doee": 8670,
      "doitsu": 8671,
      "acket": 8672,
      "rosa": 8673,
      "rosm": 8674,
      "roger": 8675,
      "rotar": 8676,
      "rofit": 8677,
      "roxy": 8678,
      "roswa": 8679,
      "illette": 8680,
      "eryte": 8681,
      "hook": 8682,
      "hope": 8683,
      "raine": 8684,
      "raset": 8685,
      "raya": 8686,
      "raku": 8687,
      "bom": 8688,
      "bower": 8689,
      "boli": 8690,
      "botan": 8691,
      "bojji": 8692,
      "edama": 8693,
      "chart": 8694,
      "chinu": 8695,
      "chris": 8696,
      "doormat": 8697,
      "otter": 8698,
      "otom": 8699,
      "otsune": 8700,
      "otukun": 8701,
      "ety": 8702,
      "ums": 8703,
      "umori": 8704,
      "umaniku": 8705,
      "tage": 8706,
      "tako": 8707,
      "taken": 8708,
      "tason": 8709,
      "tamom": 8710,
      "tachinu": 8711,
      "idman": 8712,
      "idani": 8713,
      "uden": 8714,
      "udou": 8715,
      "udachi": 8716,
      "udesu": 8717,
      "undress": 8718,
      "unks": 8719,
      "unlimit": 8720,
      "undressing": 8721,
      "lonesome": 8722,
      "appe": 8723,
      "sozo": 8724,
      "sohin": 8725,
      "sokka": 8726,
      "soyuz": 8727,
      "sovet": 8728,
      "sodani": 8729,
      "immon": 8730,
      "imiao": 8731,
      "imeter": 8732,
      "tib": 8733,
      "tial": 8734,
      "tifa": 8735,
      "tible": 8736,
      "tience": 8737,
      "okaz": 8738,
      "okatat": 8739,
      "elin": 8740,
      "elite": 8741,
      "elli": 8742,
      "elie": 8743,
      "elma": 8744,
      "elsword": 8745,
      "anthon": 8746,
      "ayato": 8747,
      "ayumu": 8748,
      "ambro": 8749,
      "amami": 8750,
      "amomo": 8751,
      "amanun": 8752,
      "holic": 8753,
      "holder": 8754,
      "holly": 8755,
      "buku": 8756,
      "thrice": 8757,
      "thanc": 8758,
      "throwing": 8759,
      "adori": 8760,
      "whistle": 8761,
      "noel": 8762,
      "nosen": 8763,
      "rium": 8764,
      "rias": 8765,
      "riage": 8766,
      "ripe": 8767,
      "riku": 8768,
      "riketsu": 8769,
      "sleepy": 8770,
      "entity": 8771,
      "pled": 8772,
      "seus": 8773,
      "seiga": 8774,
      "selebon": 8775,
      "pomu": 8776,
      "poland": 8777,
      "poyo": 8778,
      "pocky": 8779,
      "ague": 8780,
      "agmite": 8781,
      "ical": 8782,
      "icide": 8783,
      "icete": 8784,
      "lly": 8785,
      "llway": 8786,
      "sunaga": 8787,
      "sunako": 8788,
      "sunshine": 8789,
      "bros": 8790,
      "veera": 8791,
      "lis": 8792,
      "lick": 8793,
      "lied": 8794,
      "liber": 8795,
      "lization": 8796,
      "days": 8797,
      "plague": 8798,
      "odd": 8799,
      "odra": 8800,
      "toh": 8801,
      "toger": 8802,
      "tollway": 8803,
      "astral": 8804,
      "astris": 8805,
      "cecil": 8806,
      "nightstand": 8807,
      "nightmare": 8808,
      "upon": 8809,
      "comik": 8810,
      "comfy": 8811,
      "urdia": 8812,
      "akha": 8813,
      "akyuu": 8814,
      "akdove": 8815,
      "akaze": 8816,
      "akamatsu": 8817,
      "akidani": 8818,
      "mian": 8819,
      "mise": 8820,
      "miura": 8821,
      "muff": 8822,
      "mukou": 8823,
      "fords": 8824,
      "opaqu": 8825,
      "optical": 8826,
      "grape": 8827,
      "beat": 8828,
      "beaker": 8829,
      "ffel": 8830,
      "nec": 8831,
      "never": 8832,
      "nekon": 8833,
      "nearl": 8834,
      "star18": 8835,
      "starcutter": 8836,
      "sigsbee": 8837,
      "heit": 8838,
      "hecat": 8839,
      "mace": 8840,
      "maca": 8841,
      "maze": 8842,
      "mawari": 8843,
      "break": 8844,
      "mock": 8845,
      "moso": 8846,
      "mosa": 8847,
      "moly": 8848,
      "moca": 8849,
      "momet": 8850,
      "mobi": 8851,
      "moog": 8852,
      "earclip": 8853,
      "jackal": 8854,
      "jack96": 8855,
      "iona": 8856,
      "plantar": 8857,
      "deung": 8858,
      "glow": 8859,
      "oneires": 8860,
      "sule": 8861,
      "suba": 8862,
      "suis": 8863,
      "sucro": 8864,
      "suana": 8865,
      "sugar": 8866,
      "suae": 8867,
      "suicide": 8868,
      "olum": 8869,
      "olith": 8870,
      "versen": 8871,
      "vertible": 8872,
      "sideburns": 8873,
      "genek": 8874,
      "geneva": 8875,
      "bale": 8876,
      "baum": 8877,
      "izen": 8878,
      "terr": 8879,
      "tering": 8880,
      "syani": 8881,
      "sais": 8882,
      "saws": 8883,
      "sachis": 8884,
      "teach": 8885,
      "handcuffs": 8886,
      "indones": 8887,
      "ctice": 8888,
      "ruka": 8889,
      "rukk": 8890,
      "rueken": 8891,
      "grimo": 8892,
      "gridman": 8893,
      "usame": 8894,
      "namite": 8895,
      "allure": 8896,
      "houkago": 8897,
      "birdon": 8898,
      "gee": 8899,
      "labor": 8900,
      "shojo": 8901,
      "collap": 8902,
      "mexi": 8903,
      "me404": 8904,
      "isshin": 8905,
      "formation": 8906,
      "formida": 8907,
      "inkwell": 8908,
      "schoen": 8909,
      "vehicles": 8910,
      "trance": 8911,
      "trunks": 8912,
      "lyrical": 8913,
      "shinmyou": 8914,
      "futo": 8915,
      "fuka": 8916,
      "fukum": 8917,
      "artz": 8918,
      "shika": 8919,
      "shift": 8920,
      "shipy": 8921,
      "shikin": 8922,
      "shishig": 8923,
      "ukiryou": 8924,
      "dyd": 8925,
      "dyck": 8926,
      "dystop": 8927,
      "bracket": 8928,
      "neckline": 8929,
      "shoujou": 8930,
      "serv": 8931,
      "spade": 8932,
      "spell": 8933,
      "sprout": 8934,
      "spencer": 8935,
      "cass": 8936,
      "caede": 8937,
      "caesar": 8938,
      "words": 8939,
      "moonbeam": 8940,
      "swordfish": 8941,
      "wax": 8942,
      "kawor": 8943,
      "kashi": 8944,
      "kazen": 8945,
      "kasane": 8946,
      "kasodani": 8947,
      "ousen": 8948,
      "shaw": 8949,
      "shaved": 8950,
      "landmark": 8951,
      "permiss": 8952,
      "perseus": 8953,
      "qua": 8954,
      "quoise": 8955,
      "quarter": 8956,
      "quartz": 8957,
      "lorenzo": 8958,
      "asato": 8959,
      "leafan": 8960,
      "overhang": 8961,
      "feise": 8962,
      "uffie": 8963,
      "brain": 8964,
      "brazi": 8965,
      "braiding": 8966,
      "postal": 8967,
      "walkers": 8968,
      "ianne": 8969,
      "akemi": 8970,
      "letty": 8971,
      "coner": 8972,
      "convertible": 8973,
      "rocky": 8974,
      "fishbone": 8975,
      "dio": 8976,
      "dium": 8977,
      "division": 8978,
      "distor": 8979,
      "diorama": 8980,
      "parsee": 8981,
      "bloop": 8982,
      "saishi": 8983,
      "peg": 8984,
      "pega": 8985,
      "yuzu": 8986,
      "yu022": 8987,
      "venus": 8988,
      "venice": 8989,
      "adeleine": 8990,
      "drag": 8991,
      "draws": 8992,
      "petit": 8993,
      "koo": 8994,
      "kos": 8995,
      "komi": 8996,
      "koyuki": 8997,
      "kosuzu": 8998,
      "koala": 8999,
      "kozin": 9000,
      "crossbow": 9001,
      "windpump": 9002,
      "nai": 9003,
      "naimiao": 9004,
      "touko": 9005,
      "smith": 9006,
      "hiding": 9007,
      "hibi": 9008,
      "hieda": 9009,
      "hisaishi": 9010,
      "gua": 9011,
      "guchi": 9012,
      "monum": 9013,
      "monom": 9014,
      "monolith": 9015,
      "carry": 9016,
      "caria": 9017,
      "carriage": 9018,
      "snowboard": 9019,
      "snowsant": 9020,
      "ations": 9021,
      "papakha": 9022,
      "boros": 9023,
      "firecrack": 9024,
      "kneehigh": 9025,
      "pius": 9026,
      "picking": 9027,
      "anegi": 9028,
      "berlin": 9029,
      "craby": 9030,
      "rainpuff": 9031,
      "rainwords": 9032,
      "goner": 9033,
      "welcome": 9034,
      "chiyo": 9035,
      "chiii": 9036,
      "iash": 9037,
      "champ": 9038,
      "marktal": 9039,
      "kuu": 9040,
      "kutaka": 9041,
      "kuusou": 9042,
      "kirin": 9043,
      "kiran": 9044,
      "kiritan": 9045,
      "kirisa": 9046,
      "pye": 9047,
      "tops": 9048,
      "topu": 9049,
      "jio": 9050,
      "fururu": 9051,
      "furnit": 9052,
      "gohan": 9053,
      "dragons": 9054,
      "yoship": 9055,
      "yoshino": 9056,
      "yomawari": 9057,
      "undercut": 9058,
      "kiasel": 9059,
      "botttom": 9060,
      "merced": 9061,
      "mercy": 9062,
      "merlim": 9063,
      "willow": 9064,
      "boarded": 9065,
      "belts": 9066,
      "gibun": 9067,
      "giselebon": 9068,
      "manon": 9069,
      "summ": 9070,
      "azuma": 9071,
      "azhda": 9072,
      "arise": 9073,
      "barding": 9074,
      "barred": 9075,
      "barbar": 9076,
      "clocktower": 9077,
      "tokini": 9078,
      "tokino": 9079,
      "tokorot": 9080,
      "niwatari": 9081,
      "nifying": 9082,
      "exe": 9083,
      "exhaust": 9084,
      "protot": 9085,
      "stab": 9086,
      "stacia": 9087,
      "hell": 9088,
      "helipad": 9089,
      "bishi": 9090,
      "biplane": 9091,
      "biohazard": 9092,
      "drunk": 9093,
      "fractale": 9094,
      "kenharu": 9095,
      "akio": 9096,
      "akileo": 9097,
      "aboku": 9098,
      "banki": 9099,
      "sheika": 9100,
      "international": 9101,
      "voll": 9102,
      "bunting": 9103,
      "bunbun": 9104,
      "bundle": 9105,
      "buntason": 9106,
      "souma": 9107,
      "groin": 9108,
      "kanon": 9109,
      "kanappe": 9110,
      "lipsis": 9111,
      "gyaku": 9112,
      "daitou": 9113,
      "daigo": 9114,
      "jolly": 9115,
      "gasco": 9116,
      "gawako": 9117,
      "gashapon": 9118,
      "gado6": 9119,
      "chili": 9120,
      "shippo": 9121,
      "childwolf": 9122,
      "balance": 9123,
      "denki": 9124,
      "denken": 9125,
      "tuoer": 9126,
      "slums": 9127,
      "swi": 9128,
      "swd3e": 9129,
      "chewing": 9130,
      "cheeks": 9131,
      "ishy": 9132,
      "ishtar": 9133,
      "ishida": 9134,
      "surtr": 9135,
      "tenca": 9136,
      "drowning": 9137,
      "inosuke": 9138,
      "corgy": 9139,
      "coro25": 9140,
      "cowlick": 9141,
      "taisha": 9142,
      "fruits": 9143,
      "sensei": 9144,
      "sentience": 9145,
      "sennosen": 9146,
      "candela": 9147,
      "lada": 9148,
      "atable": 9149,
      "substance": 9150,
      "shimatsu": 9151,
      "shimizu": 9152,
      "shimhaq": 9153,
      "magnet": 9154,
      "magnifying": 9155,
      "cappy": 9156,
      "capsule": 9157,
      "puppy": 9158,
      "kalash": 9159,
      "aka510": 9160,
      "akausuko": 9161,
      "turning": 9162,
      "turquoise": 9163,
      "1203": 9164,
      "drinkdrink": 9165,
      "tataka510": 9166,
      "studying": 9167,
      "crypt": 9168,
      "atory": 9169,
      "1326": 9170,
      "assisted": 9171,
      "2011": 9172,
      "luc": 9173,
      "lug": 9174,
      "lucaria": 9175,
      "tomimi": 9176,
      "tomokun": 9177,
      "kamada": 9178,
      "puriketsu": 9179,
      "steering": 9180,
      "1145": 9181,
      "1106": 9182,
      "emperor": 9183,
      "teaser": 9184,
      "hanged": 9185,
      "ceros": 9186,
      "poniila": 9187,
      "squid": 9188,
      "squibby": 9189,
      "squishy": 9190,
      "aui": 9191,
      "panorama": 9192,
      "tying": 9193,
      "003": 9194,
      "0028": 9195,
      "warf": 9196,
      "wars": 9197,
      "desu": 9198,
      "desire": 9199,
      "zebon": 9200,
      "hakugyok": 9201,
      "itaroooo": 9202,
      "sakakidani": 9203,
      "pudding": 9204,
      "stalagmite": 9205,
      "waistcoat": 9206,
      "takarada": 9207,
      "heihuo": 9208,
      "hyun": 9209,
      "hyena": 9210,
      "hyrule": 9211,
      "imac": 9212,
      "erock": 9213,
      "cirith": 9214,
      "myria": 9215,
      "telekinesis": 9216,
      "yukikaze": 9217,
      "micha": 9218,
      "torso": 9219,
      "torna": 9220,
      "toriming": 9221,
      "oroyan": 9222,
      "illustration": 9223,
      "crystallization": 9224,
      "plates": 9225,
      "springfield": 9226,
      "hanami": 9227,
      "haruki": 9228,
      "harada": 9229,
      "harumaki": 9230,
      "harusame": 9231,
      "ashen": 9232,
      "palanquin": 9233,
      "geru": 9234,
      "germany": 9235,
      "gerwei": 9236,
      "shiru": 9237,
      "shiroman": 9238,
      "rickshaw": 9239,
      "binder": 9240,
      "matcha": 9241,
      "matryo": 9242,
      "matsunaga": 9243,
      "sanka": 9244,
      "oomiya": 9245,
      "oozora": 9246,
      "ooarai": 9247,
      "286": 9248,
      "jouban": 9249,
      "himeko": 9250,
      "marina": 9251,
      "marvel": 9252,
      "rinwell": 9253,
      "401": 9254,
      "4043": 9255,
      "hunting": 9256,
      "hundred": 9257,
      "resting": 9258,
      "tricycle": 9259,
      "mesa": 9260,
      "wise": 9261,
      "ready": 9262,
      "buritaroooo": 9263,
      "streamers": 9264,
      "tsukumo": 9265,
      "kagumaniku": 9266,
      "mousepad": 9267,
      "sakurai": 9268,
      "tanzaku": 9269,
      "irasuto": 9270,
      "otomo": 9271,
      "otome": 9272,
      "renai": 9273,
      "renze": 9274,
      "renmei": 9275,
      "radiation": 9276,
      "ulume": 9277,
      "acorn": 9278,
      "microscope": 9279,
      "pagne": 9280,
      "morishima": 9281,
      "slipper": 9282,
      "deerstalk": 9283,
      "monogat": 9284,
      "shimasu": 9285,
      "yorita": 9286,
      "zzy": 9287,
      "poolside": 9288,
      "friend": 9289,
      "persimmon": 9290,
      "neriash": 9291,
      "sauria": 9292,
      "4541": 9293,
      "hidulume": 9294,
      "evil": 9295,
      "evans": 9296,
      "fennec": 9297,
      "shirogane": 9298,
      "shiromoca": 9299,
      "bond": 9300,
      "cylind": 9301,
      "megumi": 9302,
      "0808": 9303,
      "aosa": 9304,
      "190": 9305,
      "1984": 9306,
      "nagakura": 9307,
      "samwise": 9308,
      "fujiie": 9309,
      "kun52": 9310,
      "junko": 9311,
      "junpei": 9312,
      "juntonan": 9313,
      "wyn": 9314,
      "wataboku": 9315,
      "zero808": 9316,
      "mitt": 9317,
      "mitsune": 9318,
      "yakan": 9319,
      "thermomet": 9320,
      "utsuki": 9321,
      "kinshi": 9322,
      "kinako": 9323,
      "juuzou": 9324,
      "festering": 9325,
      "harucoro25": 9326,
      "blankcoin": 9327,
      "nisshi": 9328,
      "wangwang": 9329,
      "haihai": 9330,
      "nekoya": 9331,
      "jumper": 9332,
      "lockhart": 9333,
      "hammock": 9334,
      "striker": 9335,
      "seatbelt": 9336,
      "seattle": 9337,
      "patrol": 9338,
      "salad": 9339,
      "salavo": 9340,
      "miyauchi": 9341,
      "landing": 9342,
      "lanfran": 9343,
      "wuliu": 9344,
      "yamashiro": 9345,
      "yoshiko": 9346,
      "yoshioka": 9347,
      "gorou": 9348,
      "tamanegi": 9349,
      "berserker": 9350,
      "kurenai": 9351,
      "malay": 9352,
      "mallll": 9353,
      "nanachi": 9354,
      "duckling": 9355,
      "5795": 9356,
      "morpho": 9357,
      "moretti": 9358,
      "utaya": 9359,
      "wireless": 9360,
      "kazama": 9361,
      "badaui": 9362,
      "komaki": 9363,
      "mizuhashi": 9364,
      "soraizumi": 9365,
      "storage": 9366,
      "centimeter": 9367,
      "eiffel": 9368,
      "hiru": 9369,
      "numagu": 9370,
      "digitalart": 9371,
      "pres": 9372,
      "volvo": 9373,
      "kyuubi": 9374,
      "uchio": 9375,
      "naoyuki": 9376,
      "dried": 9377,
      "times": 9378,
      "timmy": 9379,
      "ayakashi": 9380,
      "shinobu": 9381,
      "shinomiya": 9382,
      "blipper": 9383,
      "603": 9384,
      "melia": 9385,
      "treble": 9386,
      "warabi": 9387,
      "warabimo": 9388,
      "retrofit": 9389,
      "ciel": 9390,
      "first": 9391,
      "komachi": 9392,
      "kanojo": 9393,
      "dd0": 9394,
      "gravity": 9395,
      "gaming": 9396,
      "gamgee": 9397,
      "killua": 9398,
      "vincent": 9399,
      "yeager": 9400,
      "yokohama": 9401,
      "takashi": 9402,
      "ungol": 9403,
      "sabishii": 9404,
      "ae81": 9405,
      "aegis": 9406,
      "vento": 9407,
      "holstered": 9408,
      "benz": 9409,
      "yasi": 9410,
      "yasumo": 9411,
      "antiqua": 9412,
      "misato": 9413,
      "361": 9414,
      "3635": 9415,
      "kayari": 9416,
      "kong286": 9417,
      "sweatdrops": 9418,
      "mitsubishi": 9419,
      "practice": 9420,
      "implied": 9421,
      "maxim": 9422,
      "maxwell": 9423,
      "clubroom": 9424,
      "kumo02": 9425,
      "trojan": 9426,
      "fourth": 9427,
      "ushanka": 9428,
      "wakatsuki": 9429,
      "gekijouban": 9430,
      "545545": 9431,
      "789": 9432,
[...]
